1FF
1FF
1FF
000
000
1FF
1FF
000
000
000
1FF
1FF
000
1FF
000
1FF
000
000
1FF
000
1FF
000
000
000
000
000
1FF
000
000
000
1FF
000
1FF
000
000
1FB
1FF
000
000
000
1FD
1FF
000
000
000
1FF
000
1FF
1FF
000
1FF
000
000
000
000
1FF
000
1FF
000
1FF
000
000
000
1FF
1FF
1FE
1FF
002
1FF
1E2
1FC
1FA
000
000
000
000
000
000
000
1FF
1FF
000
000
1FF
000
000
1FF
1FF
000
1FF
1FF
001
1FF
005
001
001
000
1FE
1F6
1E9
1DE
001
000
1FF
1FF
000
000
1FC
1FD
1FB
1FF
000
1FF
000
1FF
000
000
1FF
001
000
001
004
002
00B
00B
000
1FD
1F9
1FF
1DA
1F0
1F6
1FC
1FB
1FC
1FD
1FB
1FB
1FF
1FF
1FF
000
1FF
003
008
006
001
001
016
016
00C
00C
001
1FF
1FF
1FF
1FE
1FD
1E2
1CF
1FB
1E9
1FB
1FC
1FB
1FB
000
000
000
1FF
1FC
1FF
001
1FF
013
001
005
013
01A
000
002
002
000
000
000
1FE
1FD
1FD
1FD
1FC
1FE
1FE
1FF
1FE
000
000
1FF
1FF
1FF
003
006
1FF
010
003
006
004
007
001
010
031
000
001
000
1FF
1FE
1FE
1FE
1FD
1FE
1FE
001
001
1FF
1FF
000
000
1FE
000
000
1FF
1FF
1FF
000
001
006
004
006
01C
01C
002
002
009
000
1FF
1F4
1FD
1FE
1FF
001
1FF
1FF
1FF
1FF
000
000
000
002
1FF
000
000
001
001
000
000
018
1FF
00C
028
001
002
001
000
1FE
1FE
1FE
1FF
1FF
1FB
1F9
000
000
000
000
000
002
000
000
1FF
000
1FF
000
000
007
00C
1FF
000
000
002
000
1FF
1FE
1FE
1FE
1FF
1FF
1FC
1FC
000
1FF
000
000
1FF
001
1FE
1FE
1FB
1FD
1FE
000
001
1FE
1FE
000
000
000
001
001
1FF
1FF
1E5
1FE
1FE
1FF
000
000
1FF
1FF
000
000
1FA
1FF
1FE
1F2
1FD
1EE
1E5
1FE
1FF
1FE
1FA
1FE
000
1F7
001
002
1FF
1E4
1F1
1F1
1FC
1FF
1FF
1F7
000
000
000
000
1FD
1F9
1E1
1F7
1FF
1FF
1FE
000
004
000
1FE
1FF
1F6
1FE
001
001
1F9
1ED
1FE
1FE
1FE
002
000
000
004
000
000
000
000
1FF
1E5
1FE
1FF
000
1FF
1FF
008
009
1FF
000
000
1FE
001
001
000
1FF
000
1FD
1FE
000
001
002
000
1FF
000
000
000
000
001
000
001
000
1FF
000
000
1FF
004
001
00B
1FF
000
000
000
000
002
1FF
1FE
1FF
000
001
1FF
000
1FF
1FF
000
000
003
000
000
000
1FF
1FF
000
1FE
1FF
001
010
024
00A
000
000
002
02C
001
1FF
1FE
1FB
1FF
000
000
000
1FF
1FF
1FF
002
000
000
000
000
1FF
000
1FF
1FF
000
001
002
009
00C
00C
008
01A
000
1FF
1FF
1FF
006
000
001
000
000
000
000
000
000
1FE
1FF
000
1EF
1EC
1F5
000
1FF
000
005
001
000
001
001
002
001
000
000
1FF
000
1FF
000
000
000
000
000
1FF
1F4
1EC
1F0
1E7
1D3
1EC
1E7
000
1FF
001
002
000
001
000
001
004
005
000
000
1FE
001
1FF
1FF
1FF
000
001
000
000
1FC
1FF
1FF
1FE
1FF
1FF
001
1FF
001
000
1FF
1DD
1FF
001
001
002
1FF
003
1FE
000
1FF
1FF
1FF
000
000
000
000
1FF
1ED
1F9
1FE
1FF
1FF
000
002
006
001
000
1FF
1D9
1F1
001
000
001
014
1FF
000
003
000
000
1FF
000
000
1FF
000
1FE
1FC
1FD
1FE
1FF
000
000
001
007
000
1FF
1FC
1E9
1D2
1FE
1FF
1FF
001
001
1FF
1FB
1FF
1FF
1FF
000
1FF
1FF
1FE
1FE
1FA
1FD
1FF
000
008
00E
000
003
001
1FE
1F5
1FA
1D8
1D5
1E9
1EC
000
1FD
1FF
1FD
000
1FF
000
000
1FF
000
1FC
1FC
1FB
1F8
1FF
000
001
000
1FF
000
001
1FF
1EA
001
1FF
1FF
1FC
1FD
1FE
1FA
1FC
002
004
000
1FF
1FF
000
1FF
1FC
1FD
1FB
1FD
000
002
002
000
000
000
1FF
1FE
000
000
1FF
1FF
1FB
1FB
1F9
1F8
1F9
005
006
000
1FF
000
1FF
1FF
000
1FB
1FF
000
000
1FF
1FF
1FD
1FF
1FF
1FE
1FD
1FF
1FE
1FE
000
000
1FF
1FF
000
000
1FF
000
1FF
1FF
1FF
1FF
1FF
1FF
1FF
000
1FF
1FF
1FF
1FE
1FC
1FF
000
000
1FF
1FF
000
000
000
000
000
000
000
1FF
1FF
000
000
1FF
1FF
000
000
1FF
1FF
000
1FF
1FF
1FF
1FF
1FF
000
1FF
1FF
1FF
1FF
1FF
1FF
1FF
000
1FF
1FF
1FF
000
1FF
000
1FF
000
000
1FF
1FF
1FF
000
1FF
000
1FF
1FF
1FF
1FF
1FF
1FF
1FF
1FF
1FF
1FF
1FF
000
1FF
000
1FF
000
000
000
1FF
1FF
000
1FF
1FF
1FF
1FF
000
1FF
000
1FF
000
1FF
000
000
000
1FF
1FF
1FF
1FF
1FF
1FF
000
000
1FF
1FF
000
000
000
000
1FF
1FF
000
000
001
004
000
000
1FF
000
000
005
001
006
001
002
002
002
000
000
1FF
000
1FE
1FC
1FD
1FD
000
000
1FF
1FF
1FF
000
1FF
001
001
001
1FF
001
000
000
1FF
000
000
000
004
001
001
001
001
000
1FE
1FD
1FA
1FB
000
1FF
1FF
1FF
1FF
1F9
1F8
000
000
000
1FF
1FF
1FD
1FF
000
000
1FF
1FF
002
002
001
000
001
002
1FF
1FF
1FF
1FC
1FF
1FF
000
000
004
000
1FD
000
1FF
1FD
1FD
1E4
1F9
1FF
001
002
1ED
1DF
1DF
1F4
000
1E7
1EF
001
000
1EF
1EB
000
1FF
002
1FF
000
1FE
1FE
1FD
1F6
1FE
000
1FC
1F0
1FE
000
1FF
1E6
1E0
1ED
1F0
1DF
1FE
1F8
1F8
1F8
000
1FF
1FE
1F6
1FF
1FF
001
007
1FF
1FE
1FD
1FF
000
1FF
1FE
1FC
1FE
1FF
1FF
1FC
1FF
1FF
000
1FF
1FF
1F3
1FA
1FE
1FF
1FF
1FE
1EF
1FF
1FE
1FF
1FF
001
1FF
022
009
010
001
000
1FE
1FF
002
006
00B
008
1FF
006
006
025
1FE
1FE
1FE
1FF
1FF
1FF
1FE
1FE
010
1FF
1FF
001
1FF
008
001
003
1FF
1FF
020
023
03F
01A
057
035
003
014
008
007
001
024
1FF
012
015
00D
008
000
1FA
000
1FF
002
007
010
00D
1FF
1FF
1FF
1FE
017
038
000
043
02A
002
1FF
014
010
007
013
1FF
006
006
01C
1FF
1FF
1FE
000
1FA
00B
003
000
1FF
1FD
01E
009
000
002
00C
001
001
000
1F7
1FE
1FF
000
1FF
000
005
004
001
000
1FF
014
004
1FF
1FF
006
002
001
007
1FD
1FD
1FF
001
00B
005
002
1D8
1F2
1BA
1F5
1EE
1E8
1F7
000
000
000
000
00C
1FF
1FD
1F9
000
003
001
006
000
1FE
1FD
1FD
1FF
003
004
000
1E5
1E1
1F1
1F1
1DB
1D3
1E2
1FE
001
008
001
00C
014
1FD
001
1FD
1FF
1FF
1FF
002
000
1FF
000
1FE
1F6
001
001
1EF
1F2
1E4
1ED
1FA
1F7
1F0
1FD
1F2
000
010
1FF
00B
001
1FD
006
1FE
1FF
1FF
1FF
000
1FF
1FE
000
000
000
000
1F3
1DA
1E4
1FF
1E4
1F3
1FE
1FF
1FE
1FC
000
012
003
004
010
1FF
000
002
000
000
1FF
000
1FF
1FF
000
003
001
1FF
1F8
1E4
1F3
1F0
1EB
1FE
1FD
1FE
001
1F9
1FF
008
1FF
1FF
00E
1FF
1FF
003
002
1FF
000
1FF
001
1FF
1FF
000
000
1F8
000
1F1
1E6
1FA
1FE
1F6
1D6
1FF
1F3
1F7
000
1FF
1FE
1FE
1FF
1FF
1FF
1FF
1FF
000
003
000
003
1FF
1FF
1FF
1FF
1FF
1D7
1D7
000
000
1FD
1ED
1FE
000
000
1FF
1FE
1D8
1E0
1F9
1FF
1FF
1FF
000
1FF
000
000
000
000
1FF
1FE
1FF
1FF
1FD
1FB
1FE
000
1FD
1E6
1F0
1FC
000
000
000
1F5
1F1
1FF
002
000
1FF
1FF
000
1FF
1FF
1F3
1FE
1FF
1FE
1FF
1FF
1FF
1FE
1FE
1FF
000
1FF
1FE
000
000
001
002
1FF
1F8
1FD
1FF
002
001
1FE
1FF
1FF
1FF
1FF
1FF
000
1FC
1FE
1FF
1FF
000
000
1FF
001
000
002
002
00F
00A
018
001
1FF
1F6
1ED
1FE
002
002
1FD
000
000
000
000
000
000
1FD
1FF
1FE
1FF
002
016
018
003
003
006
007
003
000
000
1FF
1FC
1F2
1F5
1FC
000
005
1FB
1FF
1FF
000
1FF
1FF
1FF
1FB
016
1FC
1FD
1FF
002
007
002
003
006
009
1FF
1FF
1FF
1FD
1FE
1F5
1FF
1FF
002
007
1FF
1FE
000
1FF
1FF
1FF
000
001
1FF
1FD
00E
008
004
000
1FF
001
00C
001
1FF
011
006
00B
001
001
001
000
002
017
1FD
1FC
1FF
1FF
000
1FF
1FF
1FE
1F5
1FC
000
1FF
1FE
1FE
1FD
00C
007
000
00C
006
004
1FF
002
1FF
001
004
1FC
000
000
000
000
1FF
1FF
000
000
006
005
002
000
1FF
004
00F
1FF
000
000
000
1FD
000
000
000
1FF
000
005
000
002
1FF
000
1FF
1FF
000
000
1FF
1FF
1FF
000
000
000
000
000
000
1FF
000
000
000
1FF
000
000
1FF
1FF
1FF
000
1FF
000
1FF
1FF
1FF
1FF
1FF
000
000
000
000
1FE
1FD
1FF
1FE
1FF
000
000
1FF
1FF
1FF
1FE
1FE
000
001
000
000
000
000
1FF
000
1FF
1FF
1FF
1FF
000
000
1FF
000
1FF
1FF
000
000
000
1FC
1FB
000
011
1FF
1FE
001
003
000
000
1FF
000
000
000
1FF
1FF
1FF
000
000
1FF
000
000
1FF
000
000
000
000
1FE
1FF
1FE
002
004
006
000
001
003
1F0
1FE
1FE
1FF
000
001
1FF
1FF
000
1FF
000
000
1FF
000
000
000
1FC
1F4
1DE
1FC
1FE
1FE
1FF
000
000
000
1F8
1FE
1FE
000
1FE
1FE
1FF
000
1FF
1FE
1FD
000
1FF
000
1FF
000
000
000
1FC
1DC
1DE
1FD
1FE
1FF
001
004
015
000
000
1FF
1FF
000
1F7
1FF
1FF
000
015
000
1FF
000
000
1FF
1FC
000
005
005
001
1EC
1F1
1FB
000
001
01C
01C
014
1FF
1E9
1D2
1E6
1FF
1F6
1FF
001
000
01E
1FF
1FF
001
1FF
000
1FB
1FD
002
003
1F5
1DD
1DE
1FE
001
00E
02D
007
010
1FD
1E7
000
1FD
1F4
000
001
001
005
1FE
1FF
006
000
007
000
1FE
1FD
000
002
000
1EF
1D3
1F7
000
002
02A
027
00C
1FE
1D6
1F8
1FC
1FE
001
004
001
1FC
1FF
1FF
000
000
000
1FF
000
1FF
1FF
000
1FE
1F2
1DD
1E3
1FE
007
000
00B
009
1E3
1D7
1ED
000
1FF
000
001
000
1FF
1FF
1FF
000
1FC
000
000
1FD
1FE
1FE
1FD
1FD
1FF
1E7
1DF
1FE
00F
1FF
02B
015
1FF
1DA
1FE
1FF
1FF
1F5
000
000
1E6
1FC
000
000
1FB
000
000
1FD
1FE
1FB
1FA
1FE
000
1DF
1E7
1FD
1FD
012
034
000
1E6
1F4
00A
000
1FF
1F6
000
000
000
1E3
1FD
003
1FF
000
1FF
000
1FB
1FB
1FC
1FD
1FF
1ED
1EC
1FE
003
02E
03D
004
1F3
1F6
1FE
005
1FE
1FF
1FF
000
001
1FF
1F9
001
003
000
1FF
000
1FD
1FA
1FE
1F1
1FF
1F8
1FF
1FF
02E
03F
000
1FD
1F2
1FC
1FF
004
1FE
1FE
1FC
1F9
1FD
1E8
002
1F6
003
1FF
000
000
000
1FC
000
1CA
1FF
1FE
009
01A
015
018
1FF
1FE
1EE
000
000
00B
1FE
1FF
1FC
1FB
1FE
1FD
1F8
1F5
000
1FF
1FF
000
000
000
1EC
1DC
000
1FF
1FF
003
012
00A
1FC
1FC
1FF
002
020
00A
010
000
1FE
1FC
1FD
1FF
001
1F6
000
000
1FF
000
1FF
000
1FB
1F0
1FE
000
1FE
1FF
00A
1FD
1FD
1FC
000
002
001
1FF
003
1FF
1FB
1F9
1FF
001
1F0
1FE
1FF
1FF
000
000
000
1FF
1FB
1FB
1FF
000
000
017
02E
1FE
1FE
1FF
1FE
002
001
00E
012
000
000
1FF
1FC
1FE
1D4
1FE
1FF
1FD
000
1FF
000
1FF
1FD
1FE
1FF
004
004
1FF
1FF
1FF
1FD
1FE
000
003
1FF
1FE
00E
000
000
1F7
000
1F3
1F9
1FF
000
000
000
002
1FF
001
000
000
001
002
01D
001
01B
006
1FF
1FF
1FF
1FF
1FC
1FE
1FF
000
1FD
1C6
1FF
1FF
1FF
1FA
1FF
000
002
000
1FF
000
000
000
000
000
012
001
01A
01C
001
1FE
1FC
1FF
1FD
1FE
1FF
000
1FE
000
002
1FF
1FE
000
1FF
000
1FF
1FF
000
1F0
1FF
000
000
1FF
000
001
007
000
1FA
1F8
1FF
1FF
1FE
1FE
1FD
1FF
1FE
001
001
1FD
1F0
000
1FF
1FF
000
000
1FF
1FF
1F5
1D7
1F8
1EF
1F0
000
002
024
1FE
000
000
000
1FE
1FB
1FE
1FD
1FE
000
001
1FF
000
1FF
1FF
000
1FF
1FF
1FF
001
000
1FF
1FF
1FD
1FF
000
008
005
000
001
001
1FF
1FF
1FC
1FC
1E9
1F6
1FD
000
000
000
000
1FF
000
000
000
000
1FB
001
000
000
1E6
002
006
001
1FF
002
01A
006
1FF
1FC
1FA
1FC
1FF
000
002
1FF
1FE
000
1FC
1FF
000
000
1FF
000
007
005
003
1FC
1F6
002
1FF
1FE
1EE
1E8
1D6
002
1F0
1D6
1FF
1FE
1FF
001
00C
008
000
1F9
1F9
1FF
1FF
000
000
000
009
00B
005
1FF
1FE
1FE
1F5
1FE
1FF
000
001
013
000
1FD
1FC
000
1FF
1FF
000
1FB
000
1FF
1FF
000
1FF
1FF
000
1FF
1FF
1FF
000
1FF
000
000
1FF
000
000
1F5
1FB
1FA
000
000
1FF
1FF
000
1FF
1FF
000
1FF
1FF
1FF
1FF
1FF
1FF
000
000
000
000
1FF
1FF
000
1FF
1FF
000
1FF
000
1FF
000
000
000
1FF
000
1FF
1FF
1FF
000
000
1FF
1FF
1FF
1FF
000
1FF
000
000
000
000
1FF
000
000
000
000
1FF
1FF
1FF
000
000
001
000
000
000
000
1FF
1FF
000
000
1FF
000
1FF
000
000
1FF
1FF
1FF
000
1FF
1FF
000
1FD
1FE
000
1FF
1FD
1FE
000
000
000
000
1FF
000
000
000
000
000
1FF
000
1FF
1FF
1FF
000
000
1FF
1FF
000
000
1FF
1FF
1FF
1FF
000
1FF
1FF
1D3
1F8
1DE
1FE
1FF
1FF
001
000
000
000
1FA
000
000
1FF
1FF
000
1FF
000
000
000
001
1FE
1E3
001
000
1FF
1FF
1FF
1FF
1FF
1FB
1FD
1FB
1FF
000
002
001
000
1FF
000
1FF
000
1FF
1FC
1FC
001
001
000
1F7
1FF
1FE
1FA
1F1
1FE
1FF
000
001
000
000
001
1FF
1FF
1FF
1FE
1FE
001
002
000
000
1FF
000
1F6
1FD
004
004
002
002
001
000
1FD
1FB
1F5
1FE
1FE
1FF
1EA
1D5
1E3
1FF
1FF
000
000
1FE
000
001
1FE
000
1FF
1FB
1F9
000
009
003
009
002
000
1FE
1FA
1FD
1D6
1FE
1ED
1F3
1E3
1E4
1FF
000
001
01C
000
1FF
1FF
005
1FE
000
1FC
1FE
1FB
1FF
002
002
000
1FF
1FE
1F2
1E7
000
001
001
1FF
1FE
1FA
1FF
001
005
003
004
001
000
1FE
001
000
1FF
1FD
1FF
000
000
000
1FC
1FF
1FF
1FF
1FE
1E9
000
000
000
1FA
1FF
1FF
1FF
001
021
019
000
000
014
1FF
000
1F5
000
1FF
1FE
000
1FE
1F4
1F5
001
001
001
001
1FF
1FD
1F7
1EE
1FD
1E4
1FE
1FF
001
001
000
1FF
002
00C
002
000
1F9
000
000
1FD
1FF
1FD
1F5
1FE
000
002
00F
000
1FC
1FD
1FC
1BA
1D2
1EF
1FF
1FF
000
1FF
000
001
002
003
005
004
1FF
1FF
000
1FA
1FD
000
1FF
000
001
017
000
1FF
1FC
1FE
001
1FF
1F2
1EA
1E7
1E1
1FE
1FF
1FF
000
000
1FF
1EE
000
1F8
1FF
1FF
1FA
1FC
1FF
001
000
006
00E
002
000
022
039
001
1FF
1FF
1F4
1FF
1E4
1FE
1FF
1FF
1FD
1FF
1E7
1ED
1FF
1FF
000
1FF
1FD
1EC
1FC
00B
005
030
005
029
018
000
004
001
001
000
000
1FF
1E8
1FD
1FE
1FE
1FC
1FA
000
1D6
1FD
1FF
000
000
1FF
1FF
1FE
000
002
003
001
00A
00F
000
010
02C
007
1FF
1FD
1DB
1EC
1F1
1EE
1FD
1FF
001
1FF
1F7
1FC
000
000
000
1FF
000
1E5
1E9
1FF
1DC
1FF
1FF
1FF
000
009
025
1FF
1FD
1F5
1F1
1F3
1FC
1E9
1FD
1FF
000
000
1FF
000
000
1FF
000
1FA
000
1F7
001
000
1F1
1FF
1F5
1ED
000
000
009
1FF
1FD
1FF
1FD
1E4
1E8
1E2
1F1
1FF
004
002
1F2
1F8
1FF
1FA
1FF
1FE
000
1FF
001
000
1EB
1FF
1FE
1FE
1FF
000
00D
000
1FF
1FF
1EE
1FC
1FF
1F8
1FF
000
003
001
000
1FF
1FF
1FF
000
1FC
1FF
1F2
000
000
000
1FB
000
1FF
000
000
001
001
000
1FE
1FE
1FE
1FC
000
1FF
001
002
001
000
000
000
1FF
000
000
1FF
000
000
000
000
1FF
000
1F5
1FE
1EB
000
1FE
1FE
1FB
1FB
1FD
1FF
001
000
001
004
001
1FF
000
000
000
1FF
000
000
000
000
000
000
1FE
000
1FF
1FF
1FF
1EE
1FC
000
1CF
1F5
000
001
002
000
000
00D
001
000
1FF
1FF
1FF
000
000
000
1FF
1FE
000
000
000
000
1FF
001
001
1F8
1FF
000
000
000
001
027
001
001
00C
020
002
003
000
000
000
000
000
000
1F3
1FB
1FE
000
001
000
008
000
000
1FF
1FC
000
005
011
01C
003
000
001
003
004
002
001
007
1FF
000
000
000
000
1F5
1F8
1F6
1FF
1FE
001
000
1FF
1FF
1FF
007
001
01A
017
02C
1FF
000
001
001
004
003
1FC
1F9
1FF
1FF
000
000
1FC
1F9
1F4
001
1EC
1FF
1FE
1FE
1EC
1FB
006
000
007
000
1FF
007
006
000
000
003
00B
00A
1FA
1F9
000
1FF
1FF
1FF
1FF
1FF
1FF
1F9
1FC
1FE
1CD
1F1
000
1FD
000
001
003
001
1FF
1FE
1FF
000
1F9
1FD
1FC
000
1FF
1FF
1FF
1FF
1FF
1FF
1FF
1FF
1FF
1FF
1FF
000
000
1FE
000
000
1FA
1F8
1FF
1FF
1FF
1FF
000
1FF
1FF
1FF
000
1FF
1FF
1FF
000
000
1FF
1FF
000
000
000
1FF
000
000
000
000
1FF
1FF
000
000
1FF
000
000
000
1FF
1FF
1FF
1FF
1FF
1FF
1FF
000
000
000
000
000
000
000
1FF
000
000
000
000
1FF
000
000
000
000
000
000
000
000
1FF
1FF
1FF
1FF
1FF
000
000
1FF
1FF
000
1FF
1FF
000
000
000
000
000
000
000
000
000
000
000
000
000
000
000
000
000
000
000
000
000
1FF
000
1FF
000
1FF
000
000
000
000
1FE
1FF
1FF
1FF
1FF
1FF
000
000
001
001
1FF
1FF
000
002
002
001
000
1F7
1FF
000
000
1FF
000
1FF
1FF
1FF
000
1FF
1FF
000
002
008
009
001
001
002
018
02E
00C
007
002
001
002
002
001
1FD
1FE
1F6
1FF
000
000
000
1FF
1FF
004
002
000
001
003
002
1FA
1FF
1FF
1FF
01D
014
000
006
010
006
009
004
002
000
1FF
1FF
1FD
000
1FF
1FF
000
1FB
000
000
001
004
002
1FE
1FE
017
1FE
1FF
1FF
001
003
002
002
000
1FF
000
001
000
1FE
1FF
000
000
000
000
000
1FA
1FE
000
000
003
000
1FB
1FD
000
011
000
023
001
002
017
1FF
007
00A
011
001
1FF
1FF
000
000
000
000
000
000
1FC
000
000
001
1FC
1FF
1FF
1FE
1FF
1FE
002
001
012
03E
025
01E
1FF
01E
001
00D
1FE
001
002
000
000
000
1FF
000
000
000
000
000
000
000
000
1FF
1FE
1FD
00A
002
000
000
000
000
00A
01B
017
000
000
1FF
003
1FD
1F9
000
000
000
000
000
1FE
1FF
000
1FF
000
1FF
1FD
1FE
001
001
1EB
1DB
1FF
1FF
1FC
1FF
000
000
000
1FF
000
1FD
1FC
000
1FF
000
000
000
1FF
000
000
1FF
1FE
000
1FF
001
002
1E5
1D1
1B9
1E3
1FD
1FB
1FB
1FF
1EB
1FE
000
018
1FF
004
001
1FF
1FF
000
1FF
004
000
002
000
1FE
00D
000
1F7
1F7
1D0
1E4
1CC
1DE
1E4
1E5
1E6
000
1E4
1F7
1FF
001
000
006
000
000
1FF
000
1FF
00C
1FE
1FF
002
001
009
1FE
1D6
1B5
1CF
000
1FA
1EF
1F4
1E8
1F1
1E8
1FE
1FF
1F5
000
000
000
000
000
1FF
000
000
002
1FE
1FE
001
001
1FE
1BD
1C9
1D7
1FF
1FF
1F0
1DD
1D8
1FD
1DC
1FF
1FE
1FF
1FD
1FF
1FE
000
000
1FF
000
1FF
1FD
000
1FE
1F2
1FF
001
1E9
1EB
1FE
1D3
1DF
1F0
1EE
000
1E1
1DE
1D6
1FC
1FE
1FF
1FF
1FE
1F9
000
1FF
000
000
000
1FF
1FF
1FE
1FF
1FE
1FF
1FB
1E5
1E7
1EE
000
1FE
000
000
1E5
1FF
1FC
1FD
1FE
1FD
1E5
1FE
1FE
000
1FF
1FF
1FF
1FF
001
1FE
1FE
000
001
000
000
1FE
1E0
1DB
1E4
1FD
1FD
1DC
1FE
000
001
000
1FE
1FC
1FE
1FF
1FF
000
000
1FF
1FF
000
001
1FC
1FD
1FF
003
004
001
1FF
1E7
1C1
1C5
1ED
1E6
1FE
003
004
001
000
000
000
000
1F8
1FE
000
000
1FF
000
000
000
1FF
1FD
1FF
000
002
000
1FE
000
001
1FC
1FF
1FF
002
005
002
001
02D
1FF
1FF
1FE
1FE
1FF
000
1FF
1FF
000
000
1FE
000
1FD
00E
016
003
01A
1FF
017
01A
002
1FF
001
00D
003
000
008
004
1FE
1FF
1FE
1FE
000
000
000
1FF
000
000
01A
1FF
1FE
1FF
000
00C
009
018
02A
024
01D
028
01F
020
000
000
000
1FD
1FC
1FF
001
000
000
000
000
1FF
1FF
000
1FF
000
00F
1FF
1FF
00F
02F
018
025
014
008
010
00D
018
01E
1FF
000
1FD
1FE
00D
005
000
000
000
000
000
000
000
1FF
1FF
1FF
002
000
000
020
00C
011
00C
000
03B
00A
005
020
1FE
1FD
1FF
001
000
1FD
1FB
000
000
000
1FF
000
000
000
001
1FE
1FF
00D
016
005
005
000
004
1FF
012
003
011
01F
1FB
1FB
1FF
000
1FF
1FE
001
000
1FF
1FF
1FF
1FF
1FF
1FF
1FC
1FC
1F9
001
002
002
002
001
012
001
001
1F5
000
000
1FE
000
1FE
005
000
1FE
000
000
000
000
1FF
1FF
1FF
000
1FB
1FD
1FF
1FF
000
000
002
1FE
1FF
000
003
004
005
019
1FE
1FF
000
006
000
1FD
1FF
000
000
1FF
1FF
1FF
1FF
1FF
000
000
1FF
1FF
000
000
000
000
000
000
000
004
000
000
000
000
000
000
1FF
000
1FF
000
000
000
000
1FF
000
000
000
000
000
1FF
1FF
1FF
000
000
1FF
000
000
1FF
000
000
000
1FF
000
1FF
000
1FF
000
000
000
1FF
000
1FF
000
1FF
000
000
000
1FF
1FF
1FF
1FF
1FF
000
000
000
000
000
1FF
000
000
000
000
000
1FF
000
1FF
000
000
1FF
000
1FF
1FF
1FF
000
000
1FF
1FF
1FF
000
000
000
000
002
000
001
002
1FF
1FC
000
000
000
1FF
1FF
000
000
000
1FF
1FF
1FF
000
1FF
1FF
1FF
1FF
1FF
1FE
1FE
000
1FF
003
000
004
023
1FD
1FF
001
001
000
1FF
000
1FF
1FF
000
000
1FF
1FF
000
002
000
1FF
1FF
001
001
000
1FD
1FF
000
1FF
007
003
023
007
001
1FF
1FF
1FA
000
1F4
1FA
1F1
1FF
1FF
1FF
1FF
1FF
006
001
1FF
001
002
001
000
1FF
1FC
000
000
000
01B
01F
011
01D
019
1FE
1FF
1FF
1F5
1F8
000
1FF
1FF
000
1FF
000
002
000
1FD
1FE
1FE
1F6
1FD
1FF
001
000
1FE
1FE
1FD
001
006
020
006
1FF
000
000
1F6
1CD
000
1FE
000
000
000
003
1FF
1FF
1FB
1FC
1FE
1FF
1FF
000
000
1FE
1FC
1DD
1FF
1FF
000
013
001
1FF
000
000
1FE
1F0
001
1FC
000
1FF
1FF
000
1FF
1FF
1FC
1FD
000
000
001
000
1FD
1F9
1EC
1F1
1FD
1FF
000
003
04E
002
001
000
1FF
1DA
1FF
1FC
1FF
000
1FF
000
000
1FF
1FC
1FF
1FF
000
000
1F1
1DB
1DB
1FC
1FB
1F6
1FE
1FF
1FF
028
01D
002
000
1FF
1F2
1F6
1FF
1FB
000
000
000
1FF
1F7
1FD
1FF
1FE
1FF
1F4
1E8
1FF
1FF
1FF
000
1F9
1F7
001
1FF
000
011
008
004
000
1E9
1FF
1FF
1FF
1FF
1FF
000
000
1FE
1FE
002
000
001
002
001
001
002
002
001
1FE
1F9
1DA
1F8
001
01B
010
003
1FF
1FE
000
1FD
1FF
1FF
1FF
1FF
1FF
000
001
00D
001
001
002
003
005
002
000
1FF
1E4
1C1
1C6
001
014
001
003
01E
013
003
1FF
1FD
1FC
000
000
000
000
00B
001
008
001
001
000
00F
000
1FE
000
000
1DF
1E4
1FE
002
00D
00C
03C
008
000
004
1F8
1FE
001
000
1FF
000
1F2
002
01A
1FF
1FF
000
1FF
1FE
001
1FF
000
000
1EC
1FF
001
005
00E
022
02B
003
1FF
1FF
000
1FF
1FF
1FF
000
1FF
001
000
003
000
003
014
034
001
1FF
1FF
000
1FE
1F5
1FD
1FE
01E
029
012
002
008
000
000
1FB
000
1FF
000
1FF
1FF
001
004
003
000
01A
003
032
003
001
000
000
1FF
1FE
000
004
1FE
1FF
001
002
001
1FF
1FF
1FA
003
000
1FF
1FF
1FF
001
006
001
000
1FF
1FF
015
003
001
001
001
000
1FF
001
007
1FF
1FE
1FF
002
001
1FF
1FE
1FE
000
002
000
1FF
000
000
1FF
1FB
000
007
024
022
001
1FD
001
001
1FF
1FF
000
00A
013
001
000
001
000
1FD
1FD
1FE
001
001
1FF
000
1FA
000
1F8
1FE
000
001
000
002
009
002
000
001
003
003
000
000
000
003
000
002
1FE
1FC
1FF
1FE
005
006
000
1FF
000
1FF
1FB
000
001
01E
000
001
00E
001
001
001
001
000
1FF
1FF
1FF
001
000
1FC
1F8
1FB
1FD
1FC
1FF
000
1FF
1FF
000
020
1FD
1FF
002
00B
000
1FF
000
002
00A
1FE
1FD
1EE
1FE
1FE
1FF
000
000
1FC
000
1FA
1FB
1F8
1FF
1FF
1FF
1FF
1FF
000
1FC
000
025
001
1FF
000
000
1FD
1FC
1FC
1E0
1FC
1FE
1FF
1FF
000
002
003
003
1FD
1FA
1F7
000
1FF
000
1FF
1FF
1FF
1DC
1FF
1FF
000
001
000
1FD
1FF
1FF
1FF
1FE
1FF
1FF
1FF
1FF
002
003
001
006
1FE
1FD
1F9
1FF
000
000
1FF
1FF
1FF
000
1FC
001
001
000
1FC
1FA
1FE
1FE
1FD
1F8
1FF
1FE
1FE
000
002
001
1FC
000
000
1FF
1FF
1FF
1FF
1FF
1FF
1FF
1FF
1FB
000
001
003
002
001
002
001
000
1EC
1FF
1FF
1FD
1FE
1FF
001
000
1FE
1F7
1F8
1F8
000
000
000
000
000
1FF
1FF
001
004
002
001
1FF
1FF
1FF
000
000
000
003
000
1FF
1FF
1FC
1FE
1FE
000
1FF
1FF
1FF
1FF
000
000
1FF
000
1FF
000
1FA
1FC
000
1FF
1FF
1FF
1FF
000
000
000
004
005
1FF
1FF
1FF
1FF
1FF
1FF
1FF
1FF
000
1FF
1FF
000
1FF
1FF
1FF
000
1FF
1FF
1FF
1FF
000
1FF
1FF
000
1FF
1FF
000
1FF
000
1FF
000
1FF
1FF
1FF
1FF
000
000
1FF
1FF
000
1FF
000
1FF
1FF
000
1FF
000
000
000
000
000
000
1FF
000
000
000
000
000
000
000
000
1FF
1FF
1FF
1FF
000
1FF
000
1FF
1FF
000
000
1FF
000
000
000
000
1FF
1FF
1FF
1FF
1FF
1FF
1FF
000
000
000
000
000
000
000
000
1FF
000
1FF
1FF
000
000
000
000
000
1FB
1FE
1FE
1FF
004
1FF
1FF
1FE
1FF
000
1FF
000
000
001
002
001
000
000
001
000
1FC
1FF
000
000
1FF
000
002
001
1FD
1FF
1FF
000
003
004
001
1FE
001
008
000
000
1FF
1F9
1FE
000
000
1FE
1FF
000
000
1FF
000
000
000
000
006
003
000
000
1FF
1FF
001
013
000
000
000
001
000
1F7
1FD
1FC
1FB
1FC
1FF
1FF
1FF
1FF
000
1FC
1FF
000
1FF
1FF
000
1FD
1FE
1FD
1FE
001
000
000
1FF
00C
000
000
1F0
1F5
001
001
000
1FC
1FC
1FF
1FF
1FE
1FE
1FC
1FF
000
1FF
000
1FA
1FB
1E6
1FD
1FF
001
002
001
019
005
003
000
1FB
000
000
001
1FE
1F1
1FF
1FF
1FF
009
1FF
000
1FF
004
000
000
1FF
1F8
1F3
1FE
1FF
1FF
005
00C
02B
018
000
002
001
003
004
002
000
1FF
1FE
1FF
009
001
000
1FF
000
000
1FF
1FF
1FF
1F9
1F8
1FE
1FE
1FE
1FF
1FF
000
1FF
1FF
003
000
1F5
001
008
016
00E
002
000
00F
001
004
002
1FC
000
000
1FF
1FF
1FF
1FF
1FA
000
001
1E6
1FE
1FF
1FF
1FF
1FF
000
1EA
003
02F
00B
1FF
00D
00F
02C
000
1F4
000
000
1FF
000
000
1FF
1E9
1FF
1FF
000
1FC
1FE
1EE
1FE
001
001
001
1CD
1D8
002
01B
008
004
00A
009
001
1FF
000
1FC
1FF
1FF
1FF
000
1FF
000
001
000
000
1FF
1FF
001
001
019
002
000
1C1
1FD
001
005
000
016
003
000
000
000
000
000
00D
1FF
1FF
000
000
003
1FB
000
000
001
006
003
014
013
000
1DF
1DC
1FA
00A
001
1FD
1FF
1FF
000
1FF
1FF
000
001
001
1FF
000
000
1F9
001
002
002
004
005
003
011
000
1FF
1F5
1F2
1CD
1FF
01C
1FE
1F8
1FC
1F5
000
1FF
1FE
1FF
1FF
1FF
1FF
1FF
1FF
1FF
1F3
001
000
007
002
01B
013
000
1FD
1E0
1EE
1FD
1FE
000
1FD
1FA
1DF
1F4
1FF
1FF
000
000
1FF
000
000
1FF
1FF
1F8
003
1FC
1FF
1FF
003
017
01E
1FF
1D8
1D4
1F1
1FD
1FD
1FF
1E0
1FD
1F9
007
001
1FF
1FE
000
000
1FE
1FF
1FE
1FF
000
01D
000
1FF
000
018
025
012
1FF
1C7
1F0
1FE
1FD
1FE
1FF
1FF
1FF
1FF
00D
001
001
1FF
000
001
1FD
002
1FD
1FE
1FE
010
002
001
002
006
025
002
1F3
1EA
1D9
1FF
1FD
1FF
1FF
1FE
1FD
1FF
002
001
002
001
000
000
1FF
000
000
000
000
000
006
002
001
02D
036
1F1
19A
1EA
1FF
1FF
1FD
1FF
1FD
1FE
1FD
000
002
004
001
000
000
000
1FF
000
1FF
000
1FF
000
001
000
037
033
002
1F5
1D2
1FF
1FE
1FD
1FC
1FD
1EF
1FE
1FF
001
003
002
000
000
1FE
000
000
000
000
005
001
000
006
00F
018
000
000
000
005
1FF
1FE
1E8
1FE
1FE
000
1FF
1FF
001
01C
003
001
002
001
004
1FF
000
1FF
000
1FF
1FF
000
025
01D
00A
1FF
010
008
000
1FE
1E7
1F8
1FF
1FF
1FF
1FF
002
007
1FF
000
001
1FE
000
000
1FF
000
000
1FA
1FC
1FD
002
021
000
1FF
002
001
000
1E5
1F0
1FA
1E9
001
1F2
1FF
1FF
1FF
1FB
1FF
000
000
1FF
1FF
000
1FF
000
1FE
1F2
1FE
00D
016
01E
000
001
000
000
002
000
1F7
1F9
1FF
000
1FD
1F0
1EB
1FA
1FF
004
003
000
000
1FF
000
1FF
004
000
1FF
000
001
004
001
000
1FF
1FF
1FF
1FF
000
1FE
001
000
1F9
1FE
000
1FF
003
007
1FF
000
000
000
1FF
000
1FF
000
1E2
000
1FF
000
002
000
1ED
1FF
001
1FF
1FF
1FD
1FF
1FE
000
1F9
1FF
000
1FF
000
1FF
000
1FF
1FF
000
000
1FF
000
000
1FF
1FF
000
000
1FD
1FA
1FF
1FE
1FE
1FD
000
003
001
000
000
008
1FF
000
1FF
1FF
1FF
000
000
000
1FF
1FF
000
000
1FF
000
000
000
1FF
1FF
000
000
1FF
1FF
1FF
000
000
000
000
000
1FF
1FF
1FF
1FF
1FF
1FF
000
000
000
000
000
000
1FF
1FF
000
1FF
000
1FF
000
1FF
1FF
1FF
1FF
1FF
000
1FF
1FF
1FF
1FF
000
1FF
000
000
1FF
1FF
000
000
000
1FF
1FF
000
1FF
1FF
1FF
1FF
1FF
1FF
1FD
000
1FF
1FF
1FF
1FD
1FA
1FE
1FF
1FF
000
1FF
1FF
000
1FF
1FF
1FF
1FF
1FF
000
1FF
1FF
1FF
1FF
1FF
1FF
1FF
000
1FE
1FE
1FF
1F3
1E6
1FA
1FB
1FD
001
1FF
1FD
1FF
001
1FF
1FF
000
000
000
000
1FF
1FF
1FF
000
000
002
1F1
1F6
1FE
000
002
000
1FF
000
000
000
002
001
1FF
1FF
000
000
001
000
000
000
000
1FF
1FA
1FB
1FB
1FE
000
009
001
018
002
1FF
000
000
000
000
000
002
001
001
000
000
001
000
003
004
000
1FF
1F8
1FB
1FA
1FE
1FB
1FD
1FF
004
001
002
011
1FF
1F2
1F3
1DF
1FF
1FE
000
001
01A
005
000
008
00A
001
1FE
000
1FF
1FA
1FF
1FC
1FE
1FC
1FE
1FE
002
002
001
01D
002
000
1FF
01F
005
01F
015
007
02D
011
006
1FF
1FF
005
1FE
1FE
000
1F9
1F9
1FA
1EA
1FD
1FC
1FE
00F
024
01A
018
020
017
026
02F
030
031
048
035
02D
003
027
021
000
01A
1FF
000
000
1FF
1FC
1FE
1FD
1FC
1FB
1FD
1FF
00E
017
01C
026
02D
014
025
01A
022
010
010
008
002
00A
016
00B
1FC
000
000
1FF
1FF
1FF
1FF
001
1FD
1F3
1FE
000
001
1FE
1FE
00B
000
001
002
1FC
001
000
000
1FE
1FE
1FC
000
1FF
1FF
002
1FF
000
1FF
1FF
1FE
000
1FE
1FE
1FF
1FE
1F8
1FC
1FD
1FE
1FF
1EB
000
1CC
1CA
1EF
1F5
1E2
1ED
1F5
1D8
1FE
1FF
000
000
000
1FF
1F6
1FF
1FF
1F9
1FF
1FF
1FF
1F4
1FD
1FF
1FF
1CE
001
1DC
1CC
1EC
1E3
1B7
1E4
1E7
1B0
1E9
1FF
1FF
1FC
1FF
1FF
1FF
1F4
000
000
1FF
1FE
000
1FF
000
1FB
1FD
1ED
001
002
000
1FD
1E9
1EC
1FE
1EE
1DE
1CA
1FF
1FF
000
1FF
1FF
1FF
1FF
1FF
1FE
1FC
001
1FE
1FD
1F8
001
1F4
1EF
1F7
000
1FD
1FC
1EE
1F7
1EF
1F7
1EF
1F5
1FE
1EB
1FF
000
000
1FF
000
000
1FF
1FE
1FA
000
1FE
1F0
002
000
1F1
1FF
1FD
1FE
1FF
1D6
1EE
1FD
1D7
1F6
1FE
1E2
1FF
1FF
1FF
1FF
000
000
1FF
000
1FF
1E6
1EE
1FF
1FE
1FE
001
001
000
000
1F4
001
1FE
1FE
1FF
1E1
1E3
1E3
1FD
1FE
1FD
1FD
1FF
1FF
000
000
1FF
1FF
00B
1FF
1FF
1FF
1FF
1FF
1FF
001
1FF
000
1F5
001
000
1FF
1FE
1FE
1FA
1FF
1FE
1FD
1FB
1FD
1FF
000
000
000
1FF
1FF
001
001
1FF
001
1FE
1FE
1FF
1FF
1FF
001
002
002
001
1FC
1FD
1FE
000
000
1FE
1FD
1E0
1FE
1F1
1FF
000
1FF
1FF
1FD
000
003
001
001
1FE
1FF
1FF
000
000
005
004
002
1FF
1FD
000
001
000
1FE
1FD
1FF
1FF
1FF
1FD
1FF
000
1FF
1FF
1FF
1FF
001
001
007
000
000
1FF
000
000
005
001
1FF
000
000
017
002
1FE
1FE
1FE
1FF
002
000
1FF
1FF
1FF
1FF
1FF
001
002
002
001
000
1EF
1FF
001
001
001
002
001
000
1FF
009
016
1FF
000
000
1FE
1FF
004
003
1FF
1FF
000
1FF
1FF
1FF
000
007
002
1E0
1F5
000
001
001
001
003
00C
00D
1FF
000
000
1FF
001
002
1FF
006
004
006
1FD
1FF
000
1FF
1FF
1FF
000
00D
003
000
1E9
1F8
1F5
1FF
1FF
001
00D
000
1FE
001
000
1FF
011
1FE
005
008
011
005
1FE
1FF
1FF
1FF
1FF
000
1FF
1F0
1F9
1F9
1FF
1FE
1FF
1FD
018
017
1FF
1FB
1FF
1FF
1FC
005
013
005
00C
1FF
005
007
1FE
1FF
000
000
1FF
000
1FF
1FE
1E2
001
002
000
009
1FC
1FB
1FD
1FF
010
022
1FF
1FE
00C
1FF
002
001
000
005
007
000
1FF
000
1FF
1FF
1FF
1FF
1FF
1FC
000
002
001
000
1FD
1FC
1FF
011
001
1FF
1FE
1FF
004
022
012
003
000
1FA
1FF
000
000
1FF
000
000
1FF
1FF
000
000
1FF
1FF
1FE
1FD
1FC
1FD
1FE
1FF
1FD
1FC
1FF
1FF
1FF
1FF
000
1FF
1FF
1FF
1FF
000
1FF
000
000
1FF
000
1FF
1FF
1FF
000
000
000
1FF
000
000
000
1FF
000
1FF
1FF
1FF
1FF
1FF
000
1FF
1FF
000
1FF
1FF
000
1FF
000
1FF
1FF
000
1FF
000
1FF
1FF
1FF
1FF
1FF
1FF
000
1FF
000
1FF
1FE
000
1FF
1FF
1FF
000
1FF
000
000
000
000
000
1FF
1FF
000
000
000
000
000
000
000
1FF
1FF
1FF
1FF
1FF
1FF
1FE
1FE
1FE
1FF
1FF
1FF
1FF
1FF
1FF
000
000
000
000
1FF
1FF
000
000
1FF
000
000
1FF
1FF
1FD
1FE
1FF
1FE
1FD
1FE
1FD
1FD
1F9
1F7
1FD
1FB
000
1FD
1FF
1FF
000
1FF
000
000
000
1FF
1FB
1FF
1FF
1FF
1FC
1FD
1FF
1FF
1FF
1FD
1F9
1FC
1FC
1EA
1FE
1FE
1FF
1FE
000
1FF
1FF
000
001
000
1FF
000
000
000
1F9
1FF
1FF
1FF
1FF
1FE
1FA
1FE
1FE
000
000
000
1F0
1E4
1FF
1FB
1E7
000
001
000
002
002
1FE
1FC
000
000
1FF
1FA
1F8
1FF
002
001
002
1FD
1FE
1FF
001
02C
001
000
001
1F5
000
001
000
002
004
003
00E
002
1FE
1FE
001
1FF
1FF
1FF
1FE
001
1FF
1FF
1FF
1FE
000
00C
005
004
1FE
1F9
1FE
1F7
1FF
009
001
001
002
002
008
001
001
1FF
001
1FC
000
1FF
1FF
1FE
1F2
002
1FF
1FF
000
003
015
1FF
1FD
1FD
1FD
1F5
1F9
012
000
1FF
000
001
000
001
001
1FD
000
1FF
000
1FF
1FE
1FE
1FE
000
002
008
1FE
1FC
1FE
1FD
1FD
1ED
1F8
1FE
001
002
000
1FF
000
000
000
000
1FC
1FD
005
1FF
1FF
1FF
1FE
000
000
003
003
007
1FF
1FD
1FF
1F1
1F3
1EA
1E4
1FF
001
002
1FF
1FF
1FF
000
002
006
000
1FF
000
1FF
000
1FF
1FF
001
000
001
000
019
000
01C
00E
003
000
000
000
001
001
000
000
000
00D
003
003
005
001
002
1FC
000
1FF
1FF
000
000
000
1FF
1FF
000
002
002
004
003
1EC
1E6
000
006
002
000
000
001
029
002
003
000
1EB
003
001
1FF
1FF
000
1F5
1FE
000
000
000
000
003
00E
003
002
1FF
1F2
001
007
001
000
016
004
049
004
000
1FF
000
003
003
1FF
000
1FF
000
1FF
1FF
1FF
1FF
1FF
1FF
000
001
000
1FF
1FF
016
017
000
000
02B
000
000
1FF
1FE
1FE
1FF
000
1FF
1FF
000
1FE
1FF
001
1FD
1FE
1FF
1FE
1FE
000
1FE
1FF
000
003
02D
000
000
1FE
1FF
000
000
1FF
1FC
1FC
1FF
1FF
000
000
1FF
1FF
1FF
001
1FF
1FE
1FE
1FE
1FF
1FA
1FF
000
001
005
000
014
01A
1FD
1FD
1FE
1FD
000
1FE
1FF
1FE
1FF
000
000
000
1FF
1FF
001
1FF
1FE
1FA
1EE
1C6
1E7
000
001
00C
00B
004
001
001
000
1F1
1F8
1EB
000
1F4
1E9
1FF
000
1FF
006
1FF
1FF
1FF
1F3
1EE
1FF
1FE
1DE
1E0
001
002
001
018
006
002
000
001
000
1E9
1E2
1ED
000
1DB
1FF
1FF
000
1FF
000
000
1FF
1FF
1FE
1E5
1FF
1EF
1F4
1FD
00B
009
000
005
001
1FF
1FF
000
1FF
1FE
1F1
1FF
001
1FE
1FF
1FE
1FF
1FF
1FF
000
1FF
1FE
1DC
1F1
1EF
1F3
001
002
018
004
1FF
1FF
000
1F9
1FB
1D3
1E4
1FD
1FC
1FB
1FF
000
1FD
1FB
1FF
000
000
000
1FB
1FF
1FF
002
1E4
1F4
002
002
000
1FE
1FF
1FE
1FE
1FE
1FD
1EF
1DD
1FD
1FC
1FC
1F6
000
003
1FB
1F9
1FF
1FF
1FF
1FF
000
001
002
002
1F7
000
000
000
1FE
000
1FF
1FF
1FF
1FE
1EE
1F8
1FE
1FF
1FC
1E8
1FE
002
000
1FF
000
000
000
1F9
000
1FF
001
001
000
002
001
000
002
000
001
001
1FF
1FE
1FE
1E1
1FF
001
1FC
1FB
1FD
1FF
002
1FF
1FF
1FF
000
000
1FF
1FC
1FE
1FE
1FD
1FF
1F3
1FE
017
1FF
002
001
00C
001
1FF
1F5
1FE
00E
1FE
1ED
1FD
1FF
000
1FF
000
000
1FF
000
002
1FE
1FE
1FD
1FE
1FC
1FE
010
1FF
1FE
1FF
009
1FE
002
002
000
1FF
1FF
1FE
1FF
1FF
1FF
000
1FF
000
000
000
000
000
1FF
001
1FF
001
001
000
1FE
1FE
000
1FF
1FD
1FD
000
009
1FF
1FF
1FE
1FF
006
005
1FF
1FF
1FF
1FF
1FF
1FF
1FF
000
000
000
1FF
1FF
1FF
1FF
1FF
1FF
1FF
1FF
003
004
1FF
000
1FF
1FF
1FF
001
000
1FF
1FF
1FF
1FF
000
1FF
000
000
000
1FF
000
1FF
1FF
1FF
000
1FF
000
1FF
000
1FF
000
1FF
1FF
1FF
1FF
1FF
000
000
1FF
000
000
1FF
1FF
000
000
000
1FF
000
1FF
1FF
000
000
1FF
1FF
1FF
000
1FF
1FF
000
1FF
000
000
1FF
1FF
000
000
1FF
000
000
000
000
1FF
1FF
000
1FF
000
000
000
000
000
000
000
000
000
000
000
000
000
000
000
000
000
000
000
1FF
000
1FF
000
000
000
000
1FF
000
1FF
000
000
000
000
000
000
000
003
001
000
000
1FF
001
007
000
1FF
000
003
000
000
1FF
1FF
1FF
1FF
000
000
1FF
000
1FF
000
003
002
001
1FF
005
008
1FF
006
003
00B
001
002
001
000
001
004
001
000
003
001
000
000
1FF
1FF
1FC
000
000
1FF
001
002
002
000
1FE
1FF
000
003
1FF
1FF
002
1FF
003
002
000
1FE
1FE
1FF
1FF
000
1FF
1FF
1FF
006
1FF
1FE
000
000
1F0
001
001
038
000
001
002
001
1FF
1FD
1FD
1FE
000
00E
003
001
1FF
1FE
1FF
000
1FF
000
000
1FB
1F9
1FD
1FE
1FE
001
002
001
000
1FF
1FE
1FF
1FF
001
000
000
002
001
00D
002
001
001
000
1FF
1FF
000
1FF
1FF
1F9
1FD
001
1FF
000
002
002
001
1FF
1FE
1FF
001
000
003
038
016
003
001
000
000
000
000
1FF
1FE
1FE
1FF
000
1FF
004
006
003
1FF
001
002
001
004
000
1FE
000
003
001
008
002
004
014
001
007
1FF
1FD
1FD
1FD
1FD
1FC
006
000
000
000
00A
002
1FE
000
1FF
000
000
000
1E6
1F5
000
001
000
1FE
001
000
000
002
1FE
1FD
1FD
1F9
1FE
1FF
000
000
000
000
002
002
001
1F9
1FE
000
1FF
1FE
1FC
1FC
1FE
1DD
1E5
1D5
1FE
1F0
1FF
1FD
1FD
000
1FF
1FE
1FF
000
1FF
1FF
000
000
1FE
000
000
1FF
1FE
1F6
1FC
1FE
1FE
1FF
1FF
1FF
1F4
1EC
1E7
000
1FE
1FE
1FE
000
000
000
000
1FF
000
000
1FF
000
1FD
000
1FF
000
1FE
1FE
1FF
006
003
002
1FF
1FF
1FE
1F7
1FD
1FF
1ED
000
1DB
1FF
1FF
001
000
1FF
000
000
000
000
1FD
1FF
1FF
1FF
1FF
001
00E
00D
000
001
002
001
001
1FC
1FE
001
1E8
001
000
1F9
000
000
1F9
000
000
1FF
000
000
1FF
1FF
1FF
000
001
00A
007
026
01F
015
001
015
006
1FE
1FF
1FF
1E4
000
1FF
000
002
1FF
1FD
1FF
1FF
000
1FF
000
1FF
1FD
1FF
003
003
004
01B
04E
029
041
04B
015
000
000
000
001
000
1DA
000
1FE
001
000
1FB
000
000
1FF
000
000
000
1F9
000
1E3
003
003
004
004
002
01D
00C
1FF
002
001
000
002
002
002
002
000
000
000
1FB
000
000
000
000
000
000
1FD
1F8
1D3
1E1
1E1
1DC
1FE
000
1FF
1FE
1FF
002
00D
00E
002
003
004
002
000
1FF
1F8
000
1FF
000
000
1FF
000
1FD
000
1FE
1E2
1F2
1BF
1AF
1AF
1C5
1ED
1D5
000
00A
017
00E
004
003
007
002
001
1F4
1FE
000
1FF
1FF
1FF
1FF
000
1FF
002
1F8
1FB
1FF
1FF
1D3
1C4
1B0
1B5
1FE
001
00B
003
022
016
005
005
003
002
1F5
000
000
000
000
000
1FF
000
001
017
1FD
1FE
001
1FF
1FF
1FF
1FF
1FF
000
013
004
005
01F
004
001
005
005
001
1FB
000
000
1FF
1FF
000
000
1FE
1FF
002
001
01A
00B
000
000
001
00B
002
000
000
007
002
001
1EC
1F9
001
000
1F6
000
000
000
000
1FF
1FF
000
000
000
005
001
00E
027
001
001
020
01C
007
018
000
013
001
1F8
1E4
1EA
1FB
1FF
000
000
000
000
000
1FF
000
000
000
005
004
001
009
008
001
00E
02D
001
001
017
019
000
1FF
1FD
1FB
1F9
1FF
000
001
000
000
000
000
000
000
1FF
000
1FC
001
00F
000
00B
017
00B
013
009
024
006
1FB
1FE
1FF
1FC
1FC
003
000
1FF
000
1FF
1FF
1FF
000
1FF
1FF
000
1FF
000
1FE
1FF
000
1FF
1FE
1FD
002
003
1FF
000
001
001
000
000
000
000
001
005
000
1FF
1FF
1FF
000
1FF
1FF
1FF
1FF
1FF
1FC
1FE
1FF
000
003
007
000
1FF
002
000
1FE
1FD
1FF
000
000
000
000
1FF
1FF
1FF
1FF
000
1FF
000
000
000
1FF
1FF
000
000
1FF
1FF
1FF
000
000
000
1FF
1FF
1FF
000
1FF
000
1FF
1FF
000
1FF
000
1FF
1FF
000
000
000
000
1FF
1FF
000
1FF
004
001
000
001
000
1FF
1FF
1FD
1FE
000
1FF
1FF
1FF
1FF
1FF
000
000
1FF
000
1FF
000
000
000
000
1FF
1FF
1FF
000
000
000
000
000
000
000
001
1FF
1FF
1FE
000
000
000
1FF
1FD
1FB
1FC
1FF
000
000
000
1FF
000
000
1FF
000
1FF
000
005
000
004
000
000
00D
001
021
01E
00F
012
003
004
000
1ED
1FF
000
000
1FD
1FD
1FD
1FA
000
1FF
000
1FF
1FA
002
002
00A
003
00A
03C
019
040
04C
029
022
01A
00C
001
006
011
004
1FF
1F8
1FF
00C
1FE
000
1FF
000
1FF
1FF
000
001
005
000
002
003
00A
003
1FF
011
022
004
011
01B
01A
021
008
002
1FF
000
001
000
1F9
1FF
000
000
1FF
1FA
1FC
000
000
1FF
1F8
000
000
1FF
1FD
1FD
1FE
01D
001
001
1FF
030
000
000
001
001
003
002
1FC
000
1FF
1FF
1FF
1F9
1FB
1FD
1FF
1FD
1E4
000
000
1FD
1FC
1FF
1FE
00A
009
00A
000
1FF
000
000
002
000
000
000
000
000
1FF
1FF
1FF
1FE
1FD
001
002
1FF
1F7
000
000
1FD
1FD
1FF
001
003
003
001
001
000
000
1FF
001
002
002
000
000
000
1FF
1FF
1FF
000
000
000
003
1FF
1FF
000
1FE
1FB
1FE
003
005
003
003
002
011
015
001
000
001
001
000
000
000
000
1FF
000
1FF
000
000
000
000
1FF
1FD
000
000
1FF
000
001
003
002
003
008
00B
002
003
003
000
000
1DD
000
000
1FF
1FF
000
000
000
000
000
1FC
1FC
1F4
1FF
1EF
001
000
007
000
000
001
004
018
001
000
1FF
1FE
1FF
1DA
000
000
1FF
000
000
000
000
000
1FC
1DE
1FB
1FD
1F2
1FE
1FF
1FE
006
00D
002
012
001
004
009
002
001
000
1EF
1FF
000
1FF
1FF
1FF
1FF
1FF
000
000
1FA
1E1
1CC
1E8
1FE
1F1
1F8
1FE
1FF
008
014
000
000
00A
00C
001
004
000
1DE
000
000
000
1FF
000
1FF
000
1FF
003
1FD
1F0
1EA
1BD
1AE
1D1
1DA
1F7
1FE
1FD
1FF
1FE
1FE
1FF
002
023
001
1FF
1F4
1FF
1FE
002
001
1FF
000
1FF
000
002
000
000
000
1C3
196
1A2
1CD
1E5
1E8
1FE
000
1FE
1FD
1F9
1FF
002
001
1FF
1FE
1FF
1FE
000
000
1FF
000
1FF
000
011
012
001
001
000
000
1EB
1E2
199
1F2
1F4
000
1FF
1FE
000
017
001
000
1FC
1FD
1FE
1FE
000
1FF
1FF
1FF
1FF
000
000
004
002
00B
001
000
004
003
001
1E2
1C5
1E1
1FF
000
006
006
1FF
1FC
1FC
1E3
1FE
1FE
000
001
000
000
1FF
000
000
000
026
034
010
00B
010
008
007
1F9
1F8
000
1FF
001
002
001
000
1FD
1FB
1E8
1FD
1FF
000
000
1FF
000
1FF
1FF
1FF
000
010
033
015
019
004
003
01D
000
001
005
1FF
001
000
000
1FF
1FC
1F3
1F9
1FF
1FF
000
1FF
1FF
000
1FF
1FF
1FF
001
019
008
011
036
000
008
011
010
003
1FF
1FF
000
1F5
000
1FF
1FD
1FB
1FC
1FF
000
000
1FF
1FF
1FF
1FF
1FF
1FE
1FF
1FE
000
010
001
000
000
018
006
020
001
000
000
000
1FF
1FF
000
1FC
1FD
000
000
1FE
000
1FF
1FF
1FF
1FF
000
1FD
1FD
1FF
001
001
1FF
002
019
00F
001
005
001
003
005
001
001
000
1FE
000
000
000
000
000
1FF
1FF
1FF
1FF
1FF
1FF
1FD
1FD
1FF
1FF
1FF
000
001
1FF
1FF
1FF
000
003
004
00D
001
000
003
001
000
002
1FD
1FF
000
000
1FF
1FF
1FF
1F9
1FD
1FE
1FE
1FE
1FF
1FE
000
1FE
1FD
1FD
1FF
001
001
000
016
004
004
001
1FF
1FF
1FF
000
1FF
000
1FF
1FF
1FF
002
002
001
000
000
1FE
002
003
001
001
000
001
000
000
000
000
000
001
001
000
1FF
000
1FF
1FF
1FF
1FF
000
1FF
002
003
002
001
000
000
001
004
001
001
000
000
001
000
000
000
1FF
1FF
1FF
000
000
000
000
1FF
000
000
000
000
1FA
1FA
1FE
1FF
1FF
1FF
1FE
000
1FF
000
000
000
1FF
1FF
000
1FF
1FF
1FF
000
1FF
000
000
000
1FF
000
000
1FF
1FF
1FF
1FF
000
000
1FF
1FF
000
1FF
1FF
000
1FF
1FF
000
000
000
000
000
000
1FF
1FF
1FF
1FF
1FF
000
000
000
1FF
1FF
000
000
1FF
000
000
1FF
000
1FF
000
000
1FF
000
000
000
1FF
000
000
000
000
1FF
1FF
000
1FF
1FF
000
1FF
1FF
1FF
1FF
1FF
1FF
1FF
000
1FF
004
004
1FF
1FF
002
001
001
003
000
1FD
1FF
1FF
1FF
1FF
000
1FF
1FF
000
1FF
000
000
1FF
1FF
1FF
1FF
1FF
000
1FC
1FD
000
001
1FE
1FF
00F
000
1FF
009
008
1FE
1FF
1FF
002
000
1FC
002
1FF
1FF
1FF
1FF
002
1FF
000
000
000
1FF
1F6
1FD
1FF
1FF
1FF
000
000
001
001
006
1FE
1FE
000
1FF
000
000
000
1FF
000
1FF
000
000
006
008
001
001
1FF
1FB
1E1
1FC
1F6
1EE
1FF
1FF
000
1F2
001
000
000
003
1FF
000
001
000
001
1FD
000
1FF
000
1FB
1F9
1FE
1FD
1FE
1FF
1FB
1FF
1FF
1FE
1DD
1E6
000
001
1FD
001
000
001
010
1FF
1FB
001
001
001
1FF
001
1FF
000
1FC
1F6
1FD
1FD
1EB
1DD
1EE
1E3
1F0
1FE
1F5
000
000
000
000
1FF
001
1FF
001
1FD
1FC
1EE
001
001
000
001
1FA
1FF
1FD
1FE
000
000
1D9
1D2
1D2
1DE
1DF
1FF
1FE
1FE
1FE
1FF
015
007
001
001
000
000
1FF
000
001
000
1FF
1FF
000
1FC
1FF
000
001
1EA
1E5
1EC
1FF
000
1FF
001
000
022
1FD
1FF
004
000
1F9
1FF
1E1
1F7
000
1E7
000
1FF
1FF
1FC
1FF
1FF
1FF
001
001
1FE
001
000
1FF
000
002
003
020
000
1FD
1E2
1FD
1E4
1E3
1F7
1FE
000
1D5
1CF
1FA
1FD
000
1FF
1FF
1FF
1FC
1FF
002
001
000
000
004
001
000
1FF
1FF
1E0
1CF
1F0
1F5
1EC
1FF
1FF
000
001
1F9
1FE
1DC
000
1FD
004
000
1FF
1F8
1FC
005
000
1FF
000
000
000
1FE
1F2
1F1
1FF
1FF
1FE
1FF
000
1FF
000
000
002
000
1FE
1FA
001
000
1F6
000
1FF
1FB
1FD
1FF
000
1FF
000
000
001
007
1FF
000
011
001
1FF
00B
000
001
004
001
001
1FF
1FF
1FB
1F8
000
1FF
000
000
1FC
1FF
016
000
000
000
000
000
00C
004
001
004
003
01E
00E
1FF
000
001
000
001
000
1FF
000
000
000
000
1FF
1FF
1FF
001
00A
1FF
017
015
006
00C
001
1FF
000
000
00E
011
000
1FE
1FF
006
000
000
000
1FF
1FE
000
1FF
004
1FF
1FF
000
1FF
1FF
00C
004
009
017
006
00D
010
011
1FF
1FF
1FE
1FE
1FF
1FF
1FF
001
1FF
1FE
1E9
000
000
000
1FE
000
1FF
1FF
000
1FF
004
00D
014
01F
001
01D
020
024
1FF
1FE
1FE
1FE
1FC
1EB
1FE
000
001
1FE
1FF
1F5
000
00C
1FD
000
000
1FF
000
000
003
01A
009
01F
1FF
1FF
004
014
012
017
001
1FE
1FF
1FE
000
002
000
1FE
000
1EE
000
001
1FF
1FF
1FF
000
1FF
1FE
1FF
002
000
000
1FF
003
012
1FF
000
009
001
1FF
1FF
1FE
000
002
001
006
01D
1FE
000
003
1FF
1FF
1FC
000
1FE
1FE
000
000
001
000
001
000
1FF
1FE
1FF
012
001
000
000
001
000
002
00F
008
01B
00B
000
000
000
1FF
000
000
1FF
1FF
000
000
000
001
001
000
000
1FF
000
007
1FF
000
002
001
017
007
006
000
1FE
1FF
000
1FE
000
000
1FF
1FF
000
001
000
000
1FE
1FB
1FF
1FF
1F1
1FD
1FD
1FE
000
001
001
004
008
004
002
000
1FE
013
003
000
1FF
1FF
000
1FF
1FF
000
1FF
1EE
1C2
1D3
1E5
1E6
1D9
1DF
1EC
1FE
000
000
1FF
001
00F
003
001
1FF
1FA
004
000
1FF
000
1FF
000
000
000
1FE
1F9
1FF
1FB
1FF
1FE
1FE
1F7
1FE
1FB
1FE
000
000
000
000
001
002
000
1FE
1FA
1FB
1FF
003
1FF
1FF
1FF
1FF
000
1FB
002
1FF
1FF
001
002
1FF
000
001
1FE
1FE
000
003
005
001
023
007
018
1FF
1FA
1F8
005
005
1FF
000
1FF
000
1FF
006
001
007
013
009
012
001
012
001
1FF
001
1FF
010
006
001
1FE
000
1F7
1F9
1FF
000
1FF
000
000
000
1FF
000
1FF
1F8
1F9
1FA
1FF
000
1FD
005
1FF
000
001
007
001
000
1FF
000
1FF
1FF
1FC
00A
000
1FF
000
1FF
000
1FF
1FF
000
000
000
000
1FF
000
1FF
000
1FF
000
1FF
1FF
000
000
1FF
1FF
000
000
000
000
1FF
000
1FF
1FF
000
000
1FF
000
1FF
000
1FF
000
1FF
1FF
000
000
000
000
1FF
1FF
000
1FF
1FF
000
000
1FF
000
000
1FF
000
000
000
1FF
1FF
000
1FF
1FF
000
1FF
000
000
1FF
000
000
1FF
1FF
1FF
1FD
1FF
000
1FF
1FF
1FF
1FF
1FF
1FF
000
000
1FF
000
000
1FF
000
1FF
000
000
1FF
1FE
1FF
1FF
000
1FF
000
000
1FF
1FF
1FF
001
001
000
000
1FF
1FF
002
1FF
1FF
000
000
1FB
000
1FF
1FF
000
1FF
000
1FF
1FE
000
000
007
001
000
000
000
000
1FF
1FF
1FD
1FC
1FE
1FF
001
1FE
1FF
000
005
001
1FF
1FF
1FF
000
1FB
1FB
1FB
1FF
1FF
000
012
005
003
001
1EE
000
1FE
1FE
1FD
1FD
1FF
1FC
1FF
000
000
000
007
002
1FF
000
1FF
1FC
1FA
1FC
1FF
1FD
1FE
005
001
1FF
1FF
000
1F3
1FE
1E1
1FC
1FD
1FE
1FF
1F7
1FD
000
022
000
1FF
001
1FE
000
1FF
000
1FE
1FE
002
1FF
1FF
024
00A
1FF
1FE
1DA
1D2
1FF
1FE
1FF
1FE
001
00C
1FD
1FE
000
001
1FF
1FF
1F7
1FE
1FF
000
1FB
1FC
1FF
1FF
001
009
018
02B
1FF
1FD
1CD
002
001
1FA
1FD
1F6
000
000
1FF
1F4
1FF
1FE
1FE
1F6
000
001
1FF
000
1FF
1FF
000
1FE
1FE
1FF
00F
00D
007
1FE
1A5
1D0
000
1FE
1F8
1FF
1FF
000
1FE
1FF
000
1FF
1FF
000
1FF
002
000
000
000
1FF
001
1FF
1FE
1FF
008
048
02F
1FD
1D7
1DE
1FD
1FE
1FD
1FF
1FE
1FE
1FF
000
001
001
1FF
000
1FF
012
1FF
000
1FF
000
1FE
1FE
1FF
001
00F
01B
048
018
1FE
1F8
1FD
000
1FF
1FE
1FB
1FF
000
000
001
002
005
00B
025
005
1FF
1FF
000
1FF
1FF
1FF
1FF
008
004
017
014
1FF
000
1F8
1E3
000
000
1EE
1FC
1FF
000
000
1FF
000
001
1FF
002
000
000
000
000
1FF
002
1FF
1FF
001
003
002
008
014
000
1FF
1FC
000
1ED
1D8
000
001
000
1FF
1FF
001
000
000
1FF
1FF
1FF
1FF
000
1F9
001
001
001
003
002
001
002
020
003
000
000
000
1FD
1FC
1FE
001
000
1FF
1FF
001
000
000
1FF
1FF
1FF
000
000
1FA
001
1FF
1FF
001
000
003
003
025
004
1FF
1FF
1FE
1FE
1FC
1FF
1FF
1FF
1FF
1FE
000
000
000
000
000
000
1FF
000
1FE
002
1FD
1ED
1F0
1FF
1FF
001
003
004
001
1FF
1FF
1FE
1FC
1F8
1FF
1FE
1FF
000
1FF
1FF
000
1FF
1FF
000
1FF
000
1FE
000
1FD
1FD
1B9
1F8
1FC
1FF
003
016
001
1FF
1FF
1FE
1F6
1F7
000
1FF
1FE
001
001
000
000
000
1FD
1F9
000
1FF
1FE
1FE
1FF
1FE
1D2
1FB
1FE
1FF
1FF
000
01B
003
1FF
1FD
1E1
1F7
000
000
1FD
1FF
000
003
004
000
000
1FF
1FF
1FF
1FE
1FC
000
1FE
1F2
1FE
1FF
1FE
1FD
000
01C
014
1FD
1FA
1FE
1FE
000
007
1FD
1FE
1FF
004
003
1FF
1FF
000
001
000
1FE
1FF
1FF
1FF
1FD
1FF
1FF
1FE
1FE
1FF
001
1FF
002
1FD
1FF
001
1FF
000
1FE
1F6
1FF
001
000
000
000
1FF
000
000
1FF
000
1FF
1FF
1FE
1FF
1FE
1FE
1FF
1FF
000
001
001
000
00A
000
1FF
018
000
1F5
1FF
001
005
000
000
1FF
1FF
1FF
1FF
1FF
1FE
1FE
1FE
1FF
1FC
1F6
1FE
1FE
1F7
000
001
03B
00D
1FE
1FD
1FF
000
1FF
1FE
1FF
005
000
1FF
1FF
000
1FF
1FF
1FF
1FF
1FC
1E6
1FD
1FD
1FF
1FB
1FC
1FF
001
000
030
1FF
1FD
1FD
000
001
1FF
1FF
1FD
003
000
1FF
000
1FF
000
000
1FF
1FF
1F5
1E9
1FE
1FF
1FE
000
000
002
019
010
1FF
1F5
000
1FF
1FA
1FD
1FF
1FE
1FA
1FD
000
1FF
1FF
1FF
1FF
1FF
000
1FF
1FD
1FE
1FA
1F0
1FD
1FC
1FA
001
001
014
000
1FF
000
000
1FF
1FD
1FF
000
1FF
000
000
000
1FF
1FF
000
1FF
1FF
000
1FF
1FF
1FF
1FF
1FE
1FF
1FE
000
1FF
000
1FF
1FE
1FE
001
1FF
1FE
000
000
000
1FF
000
000
1FF
1FF
000
000
1FF
1FF
000
000
1FF
1FF
000
000
1FF
1FF
1FD
1FC
000
000
1FF
000
000
000
000
1FF
1FF
000
1FF
1FF
1FF
000
000
1FF
1FF
000
000
1FF
000
000
1FF
1FF
1FF
000
1FF
1FF
000
000
1FF
1FF
000
000
1FF
000
1FF
000
000
1FF
000
000
1FF
000
000
1FF
1FF
1FF
1FF
1FF
000
000
1FE
000
000
1FF
1FF
000
1FF
1FF
1FF
000
000
000
1FF
000
000
000
1FF
000
1FF
000
000
1FF
1FF
1FF
000
000
1FF
000
1FE
1F8
000
000
1FF
1FC
000
004
002
000
000
000
000
000
000
1FF
000
000
000
1FF
1FE
000
000
000
000
000
1FF
1FE
1FC
1FF
000
1FF
1FE
1FF
000
009
002
1FF
000
001
000
002
000
1FF
1FF
1FF
000
1FF
1FF
1FE
1FF
000
001
000
001
001
000
000
000
000
001
00A
014
034
013
000
002
000
1F4
1FE
1FC
000
000
1FF
000
003
006
003
000
001
000
001
01A
002
1FE
1D9
18F
1AB
1FF
010
026
017
002
02B
03D
008
1FF
1FF
1FF
1FF
000
000
1FC
1FE
002
001
002
00D
00F
02A
009
000
000
1D6
1B0
195
000
002
037
001
01E
008
001
000
1FF
000
000
001
000
000
1FF
1FF
002
000
001
000
000
000
1FF
004
001
1E7
1CA
1D1
002
009
028
001
000
00B
005
001
000
000
000
001
003
1FF
000
004
003
1FF
1FF
1FF
1FC
1FE
000
00E
000
1D6
188
1E4
00D
02C
03A
1FF
1FF
000
000
000
1F1
1F5
000
000
1FF
1FF
1FF
000
1FE
1FC
1FC
1ED
1E8
000
001
002
000
1E4
198
000
012
012
00E
000
1F9
000
000
1F9
1FF
1FD
1FB
000
1FF
000
1FE
1FF
1FE
1FE
1E1
1EE
001
001
004
000
1FF
1BF
18A
000
002
025
001
001
1FD
1FD
1EE
1F3
1FF
000
000
000
1FF
000
1FF
000
1F2
1FF
1FF
1EE
1FD
003
1FF
1F4
000
1F4
1F6
1FF
008
007
018
000
1FC
1E3
1F9
1EE
000
001
1FE
1F8
000
004
000
1FE
1FC
005
003
1EC
1FB
1FD
1FF
1FD
1FF
1FF
1FF
1FE
001
026
001
000
1FF
1FD
1FD
1FF
001
005
000
1FF
1FF
000
000
000
1FD
001
003
001
001
1FF
1FE
1FD
1F8
1F4
1FB
1FE
1FF
013
1FF
000
000
000
1FF
001
000
001
000
000
000
1FF
000
1FE
00C
001
032
00A
001
001
001
1FF
1FD
1FF
1FF
1FE
1FF
000
000
001
1FF
1FF
1FE
000
1FF
1FF
1FF
000
000
1FF
004
1FF
003
000
1FF
002
000
000
001
001
000
00D
1FF
1FF
1FE
1FF
000
000
1FF
1FF
1FF
1FF
1FD
1FF
001
000
1FF
000
1FF
013
002
000
000
1FF
1F5
1F7
001
1FF
1FE
000
1FF
004
1FB
1FD
001
000
1FF
1FF
1FA
1FD
1FF
1FF
001
1FD
000
1FF
001
000
001
001
001
000
1FC
1FE
000
002
1FD
1FE
000
000
1FF
000
006
000
1FF
000
1FE
000
003
001
1FD
1FD
1FE
1FF
1FF
000
000
001
001
001
000
1FF
1FF
002
1FE
1FE
000
00A
000
1FF
001
000
1FD
000
001
000
001
007
1FA
1FF
1FF
000
1FE
000
1FE
000
001
001
000
1FF
000
000
1EB
1FE
000
003
014
012
013
001
009
027
001
1FF
000
001
000
1FF
1FF
1FF
1FD
000
000
1FB
000
008
01E
000
000
1FF
000
000
000
000
009
00B
031
014
001
015
1FF
1FB
001
1FF
000
1FF
000
1FF
1FF
1FE
001
1FF
000
003
016
1FF
1FF
1EF
000
001
000
000
000
001
001
009
001
001
1FE
1FD
006
1FF
000
1FF
000
000
000
000
001
003
000
000
000
001
1F0
000
000
001
1FF
000
1FF
1F8
1FC
009
000
000
1FE
1FB
000
1FE
1FF
000
1FF
1FF
000
000
000
000
000
002
000
000
1FD
1FF
1FF
00B
1FE
000
001
1F6
000
007
000
004
1FE
1FD
001
004
1FF
1FF
000
000
1FF
000
1FF
1FE
1F5
1FF
000
001
001
001
1FF
02F
007
1F9
1FE
1FF
014
1FF
1FA
000
1FC
1FB
1FE
1FF
1F9
000
1FF
000
000
1FF
1FE
1FF
1FD
1FD
1FF
1FF
003
002
000
000
1FA
1FE
002
002
1FF
1F9
1FD
1FC
1F1
000
000
1F9
1F9
000
1FF
1FF
000
1FF
000
000
1FD
1FE
1FF
1FE
000
1F2
1FB
1EB
1ED
000
000
1FD
1F7
1F3
1F6
1F1
1FF
1FF
000
1FF
1FF
000
1FF
000
000
000
000
1FF
000
000
001
004
000
000
000
1FF
000
000
000
000
1FD
1FF
1FF
000
000
1FF
000
1FF
000
1FF
000
000
000
1FF
000
000
1FF
000
1FF
1FF
1FF
000
1FF
000
000
000
1FF
1FF
1FF
000
1FF
000
000
000
1FF
1FF
000
1FF
1FF
1FF
1FF
1FF
000
1FE
1FF
009
1FF
1FF
000
000
001
1FF
000
1FF
000
000
001
1FF
1FF
000
1FF
1FF
1FF
000
000
000
000
1FF
1FF
1FF
1FF
1FF
1FF
000
000
000
000
1FF
000
000
001
000
000
001
000
000
000
000
000
000
000
000
1FF
000
1FF
000
000
1FF
003
008
001
006
01C
000
1FF
025
014
011
017
00A
1FE
1FE
1F6
1FE
1FF
000
001
003
002
001
000
000
000
000
1FF
001
000
002
000
1F5
00D
000
033
008
007
019
00D
1FE
1FE
1FE
1FE
1FE
1FF
000
000
002
004
00E
1FE
000
000
1FF
000
1FF
00A
002
000
1FF
001
010
001
000
1FE
1FF
00B
000
1F0
1D8
1E6
1FE
1FF
1FF
1FF
1FF
000
004
000
000
000
000
000
1FF
002
01B
014
002
001
000
1FE
1FF
003
1FF
000
1F4
1DD
1B4
1FD
1E9
1E9
1FC
1FF
1FE
1FE
1FF
000
000
1FF
1FF
002
001
002
009
001
007
000
1FF
003
00A
001
1FF
1FF
1DB
1CB
1F0
1FE
1F1
1DF
1F2
1FC
1FE
1FE
1FD
000
1FF
005
000
001
003
005
002
000
001
001
000
00D
001
019
004
1E0
1DB
000
000
1FF
1E8
1FF
1FD
1FC
1FD
1FD
1FE
000
000
000
1FF
1FD
000
006
001
000
1FF
1FF
1FE
001
003
027
001
000
1E1
000
001
000
1FD
1FE
1FF
1FD
1FD
1FE
000
000
000
000
1FF
000
1FE
003
1E8
1FF
1FF
1FF
000
005
022
01F
1FF
1EF
1FE
1FF
008
1FF
1FD
1FD
1FC
1FF
1FF
000
1FF
1FF
1FF
1FF
000
000
1FB
1F4
1F7
1FF
1FD
000
009
00A
028
000
1EB
1C6
1FF
013
002
1FE
1FE
1ED
1F8
1FD
000
000
1FE
1FF
005
000
1FF
000
1F5
1EB
1FC
000
000
005
013
024
026
001
1FC
1FF
000
008
000
023
1F4
1FD
1FC
1FF
1FF
00D
002
001
004
000
1FF
1FF
000
1FF
1FD
1FF
00E
01F
02A
005
003
1E9
1CD
1FE
1FD
010
017
017
000
1FF
1FF
013
01A
000
000
000
000
000
000
000
1FC
1FD
01B
017
010
029
008
002
001
1E0
1F6
1FC
1FC
1FF
00F
001
011
000
004
00A
00F
006
000
1FF
000
000
1FF
000
001
1FE
01B
007
009
000
001
001
000
1DE
1F6
1FE
000
1FE
1FE
001
018
001
001
020
01C
001
000
1FE
1FF
000
000
000
009
001
000
00D
00D
1FF
1FE
1FF
1EA
1F7
1FF
1FF
000
1E2
1E9
1FD
001
001
000
001
01D
00F
000
000
000
1FF
000
000
002
001
1FF
1FF
1FF
1FE
1FB
1EB
1F6
1FE
000
1FF
1E1
1E9
1F0
1EC
000
000
028
000
019
001
1FF
1FF
002
000
1FF
000
000
1FF
1FF
008
000
1FD
1FE
1F0
1E0
1FF
00A
1FF
1E8
1E6
1FB
1EB
1FF
1FF
010
000
011
000
000
1FF
1FF
1FF
000
1FD
1FF
1FF
1FE
1FE
1FF
1F9
1F6
1FC
1FF
016
000
000
1F4
1F2
1FE
1E6
1FF
1FF
000
000
000
000
1FF
000
000
000
000
000
1FF
1FE
1FA
1FD
1FF
000
000
1FF
1FF
014
000
010
002
000
1FE
1FD
1FF
1FF
002
000
1FE
1F5
1F4
1FF
000
1FF
1FF
000
000
1FF
1E6
1E2
1E8
1FD
1FE
004
022
005
1FF
022
002
007
000
1FE
1FE
1FF
001
001
1F5
1E9
1FC
00D
000
000
1FF
000
000
000
1FD
1FE
1FE
1FA
1FE
1FD
000
1FE
1FF
001
019
00E
1FE
1F0
1F9
001
002
1FF
1FE
1EC
000
000
000
000
1FF
000
000
000
1FF
1FF
1FF
1FE
001
000
1FD
1FE
000
000
000
000
1FE
1F9
001
002
000
1F6
1D7
1F3
1FF
1FF
1FF
1FF
1FF
1FF
000
000
000
1FE
1FE
000
000
1FD
1FF
1FE
003
000
1FD
000
1FF
000
001
1E9
1FF
1FD
1FB
000
000
1FF
000
000
000
000
000
1FD
1FC
001
000
1FF
1FB
1FF
1FF
000
002
1FD
000
001
000
006
004
1FF
1FF
1FF
1FE
1FF
000
1FF
1FF
1FF
1FF
000
1FF
000
1EB
1FD
1F3
000
1FE
1FF
1FE
000
002
1E2
1FF
1FE
1FD
1FD
002
000
003
002
000
1FF
000
000
1FF
000
000
000
000
1FF
1FF
000
1FF
001
002
1FD
000
000
000
000
1EB
000
000
1FD
1FD
1FF
001
1FF
003
1FF
1FF
000
1FF
000
1FF
000
1FF
000
000
1FF
000
000
000
000
000
1FF
000
1FF
1FF
1FF
000
000
1FF
1FF
1FF
000
000
000
000
000
1FF
1FF
000
1FF
1FF
000
000
1FF
000
1FF
1FF
000
1FF
000
000
1FF
000
1FF
000
000
1FF
1FF
000
000
000
000
000
000
000
000
000
1FF
1FF
000
000
000
000
1FF
1FF
1FF
1FF
1FF
1FF
1FE
1FF
000
002
1FF
1FA
1FF
000
1FF
000
000
1FF
1FF
1FF
000
1FF
1FF
000
1FF
000
000
1FF
1FF
001
000
1FF
1FE
000
001
001
1FF
1FE
000
002
002
1FF
005
006
001
1FB
1FA
1FF
1FF
1FF
000
1FF
1FE
1FF
1FF
1FF
1FD
1FE
1FB
1FE
1FE
1FF
1FF
00E
01D
00F
01C
004
002
1FE
1FD
1FF
000
1F1
1FF
1FF
1FF
1FF
1FF
1FF
1F5
1FD
000
1FF
1FE
1FE
1E8
1FD
1FE
1FF
001
010
00A
014
028
021
000
1FF
1FF
1FD
001
002
1FC
1FF
1FF
1FF
1FF
1FF
1FD
1FE
1E9
1FB
1FD
1FB
1FF
1FE
1F4
1FE
1FF
000
001
009
035
01B
029
008
000
000
1FF
000
1FC
000
1FF
000
000
1FF
1FF
1FC
1FE
1F9
1FC
1FF
1FF
000
1FF
000
000
001
1FF
025
049
009
001
017
01F
003
1FE
000
1FD
000
1FF
000
1FF
1FF
001
1FE
1FE
1FF
1FE
1FD
000
003
000
003
000
1FE
1FE
1FF
010
015
02A
001
001
002
1FF
006
000
000
1FF
000
1FF
1FF
000
1FD
1E8
1FE
1E7
1FF
001
000
001
014
1FF
1FE
1D9
1E7
1FD
00B
028
020
001
018
000
00A
001
1FB
000
000
000
1FF
000
1FF
1FF
1FF
000
000
000
004
000
1FE
00D
1F1
1DD
1D5
1FE
1FF
001
005
00E
012
1FF
1F7
000
005
1FF
000
1FF
1FF
000
000
000
002
001
001
000
000
1F9
1FD
007
1FE
1F3
1B8
1D9
000
002
00B
010
00B
01D
1FF
005
005
000
000
000
1FF
000
1EF
000
000
001
002
1FF
1FF
1EE
1FE
004
1FF
1FE
000
000
001
002
002
000
000
026
005
000
000
000
1FF
000
00C
1FD
000
002
000
001
000
1FE
1F5
1FE
1FF
001
000
1FE
1FF
1FF
003
001
1FF
006
1FF
002
000
000
001
000
000
000
002
1F6
000
001
000
001
1FF
1FF
1FF
000
009
00F
001
1FD
1FE
1DA
000
000
1FE
1FE
1EE
1FE
1FF
000
000
000
1FF
000
000
1FD
1FF
002
001
000
001
007
1FF
000
001
000
1FF
1F3
1EC
000
001
1FF
1F3
1DD
1FC
000
000
1FF
000
1FF
000
000
000
1F7
1FF
000
000
000
038
005
000
000
1E9
000
1FA
1F7
1FB
1ED
1E1
1EF
001
000
1FD
1FF
000
1FF
1FF
000
1FF
1FE
001
1FC
1FF
1FF
033
014
01F
1FF
000
1F5
1DB
1FF
1F9
1FE
1D8
1DE
000
000
001
000
000
1FC
1FD
1FF
000
1FF
1FF
000
001
000
1FE
007
000
01D
004
1FF
1F3
1CB
1F3
000
1FF
000
000
1FF
1FF
000
000
000
1FD
1FD
1F2
000
1FF
1FF
000
1FD
000
1FE
1FE
000
005
001
1FE
000
1CF
1BB
001
1FF
001
000
1FF
1E5
1FC
1FB
1FF
1FF
1FC
1FD
1E8
1FF
1FF
000
001
001
1FF
1FA
000
000
015
010
016
001
1F7
1E4
1F2
1F3
000
1D7
1F6
1F0
1FC
1FF
1FE
1FE
1FD
1FC
1FA
1FF
000
1FF
1FF
001
007
1FC
1FE
00C
014
00D
020
01B
003
1FF
1FF
000
000
1FE
1FD
1FE
1FF
1F5
1FF
1FF
1FD
1EB
1FB
1FF
000
000
000
000
001
1FD
1FD
00F
012
004
006
020
01E
012
006
001
1FF
1FE
1F6
1FF
1FD
1F1
1FE
1FE
1FD
000
1FC
000
1FF
1FF
1FF
000
003
1FF
1FD
000
000
00E
000
015
000
014
016
1FF
1FE
1FB
1FD
1FD
1FB
1D5
1FD
1FF
000
000
1FE
000
000
000
000
1FF
000
001
1FE
001
001
001
1FF
1FE
000
001
000
1FB
1F0
1FD
1FD
1FE
1FD
1FF
1FE
1FF
1FF
1FF
000
000
000
1FF
1FF
000
1FF
002
1E6
004
1F8
002
001
003
002
001
001
000
000
000
1FF
1FE
1FE
1FF
1FF
1FF
000
000
1FF
1FF
1FF
1FF
1FF
000
000
000
1FC
1FE
1FF
002
002
002
003
001
000
000
1FF
1FF
1FF
1FF
1FF
1FF
1FB
1FF
000
1FF
000
1FF
1FF
000
000
1FF
000
000
1FF
000
000
000
1FF
1FF
1FF
000
1FF
000
1FF
000
1FF
1FF
000
000
1FF
000
1FF
000
000
000
1FF
1FF
1FF
000
1FF
1FF
1FF
000
000
1FF
1FF
1FF
000
000
000
1FF
000
000
1FF
1FF
1FF
1FF
000
000
1FF
1FF
000
1FF
000
1FF
000
1FF
000
000
000
000
1FF
1FF
1FF
1FF
1FF
1FF
1FF
1FF
1FF
1FE
1FC
1FF
1FF
000
000
1FF
1FF
000
000
000
000
000
000
1FF
1FF
1FF
000
1FF
000
000
000
1FC
1FB
000
1FF
1FD
1FC
1FF
1FF
1FF
1FF
1FF
1FF
000
000
000
1FF
1FF
1FF
000
1FF
000
000
1FF
000
1FF
1FF
000
1FF
001
1FF
1FF
1FF
000
001
000
000
000
1FE
1FF
003
001
002
000
1FD
000
1FF
1FF
1FF
1FF
000
000
000
1FF
1FF
000
001
000
1FD
1FD
1FF
000
016
014
000
003
000
000
022
001
000
000
000
001
1FF
1FF
1FF
1FF
000
000
000
1FF
002
1FF
1FF
1FD
1CE
1F0
1F6
1FE
1FF
1FF
001
001
01F
010
001
000
000
000
006
000
003
000
1FF
1FF
1F9
1FD
1FF
000
00A
1FF
1FF
1FE
1F0
1FE
1FE
1FF
1FF
1FF
000
1FF
004
005
1FF
000
000
000
000
001
001
1FF
000
1F9
1F9
1FC
1FF
001
002
000
005
1FE
1FE
1FF
1F3
000
00C
1FE
1FE
1FF
000
000
1FF
1FF
000
1FF
1FF
001
001
1FF
000
1F9
1FA
1FE
000
002
01A
006
000
1FF
1FF
1FF
1FE
1FE
1FF
1FD
1FB
1FD
1FF
000
000
1FF
1FF
1FF
1FF
001
1FF
1FF
000
000
000
1FF
000
001
000
1FF
1FF
000
000
1FE
000
1FF
000
1FE
1FE
1FE
1FF
1FF
1FF
1FF
000
1F0
002
003
1FC
1FF
000
1FF
000
1FF
000
000
1FF
1FE
1FF
000
000
001
1FA
001
00A
000
001
017
1FF
1FE
1FE
1FE
000
1F1
000
000
000
1FF
1FF
000
000
1FF
1FF
000
1FE
1FE
1FF
1FF
1FE
001
001
03C
018
010
01B
018
1FF
1FE
1FD
1FB
000
1FF
1FF
000
1FF
1FF
1FF
1FE
1FF
1FE
1FF
000
1FE
1FE
1FF
000
000
000
026
033
00E
005
018
1FE
1FE
1FD
1F8
1F0
000
000
1FF
000
1FF
1FF
1FF
1FF
000
1FB
1FE
000
1FF
1FC
1FE
1E8
1FE
000
02D
1FF
1FF
1FF
1FD
1FE
1FF
1E5
1F6
1FE
1FF
000
1FF
1FF
1FE
000
000
000
000
1FE
1FD
000
1FF
1FA
1EA
1F5
1FE
1FF
000
1FF
1FE
1FF
1FD
1CF
1F2
1F7
1FA
1FD
1FE
000
1FF
1FF
1FF
1FF
1FF
1FF
1FF
1FF
1FB
1FF
1FF
1FF
1FE
1E4
1EF
001
001
1FF
1FC
1FE
1FE
1FE
000
000
1FE
1FE
1FF
1FF
000
1FF
1FF
1FF
1FF
000
000
000
1FF
1FF
000
000
1FE
1FE
1FF
1FF
000
1FF
1FD
1FF
1FE
1FF
000
1FF
1E4
1FA
1FF
1FF
1FF
000
1FF
1FF
000
000
1FF
1FF
000
1FF
001
1FF
1FD
1FE
1FE
1FF
1FD
1FF
1FE
1FF
000
000
002
002
1FE
1FF
1FF
1FF
1FF
1FF
1FE
1FF
1FF
000
1FD
1FF
000
001
001
000
1FF
1FF
1FE
1FD
1E9
1FE
1FF
000
000
000
00A
001
1FE
1EC
1F2
1FF
1FF
1FD
1FF
1FF
1FF
1FD
1FD
000
001
001
000
000
000
1FF
1FD
1E1
1F5
000
1FE
1FF
007
002
023
1FF
1FD
1CA
1FD
000
002
000
1FF
000
000
1FE
1FF
1FF
1FF
000
000
000
000
000
1FF
1ED
001
001
1FE
1FE
006
012
00A
1FE
1FA
1C8
000
000
000
1FF
1FF
000
1FF
1FF
1FF
1FD
1FF
1FF
1FF
000
000
000
000
1FF
001
000
1FF
000
001
001
1FF
1FF
1FD
1F5
1FF
000
1FF
000
000
1FF
000
1FF
1FF
1FD
1FE
1FD
1FD
1FE
1FF
000
015
010
00E
002
005
001
000
000
1FF
1EC
000
1FD
1FE
1FE
1FD
1FF
000
000
1FF
1FF
1FF
1FE
1FD
1F8
1FD
1FD
1FE
1FD
1FE
000
000
000
000
1FF
1FE
1FF
000
1FC
1FE
000
1FF
1FF
1FE
1FF
1FF
1FF
000
1FF
1FF
1FE
1FD
000
001
001
000
1FF
000
000
000
1E6
1F9
1FE
1F5
1FF
1FA
1FF
1FE
000
000
1FF
000
000
000
1FF
1FF
1FF
000
1FD
1FC
1FE
000
000
003
000
001
000
1FF
000
000
1FF
1FF
000
000
000
1FF
1FF
1FF
1FF
000
000
1FF
1FF
1FF
1FF
1FF
1FE
1FE
1FF
000
002
003
003
002
1FF
1FD
001
001
1FF
000
000
000
000
1FF
000
000
1FF
1FF
000
000
000
1FF
1FF
1FF
1FF
1FF
1FF
1FF
000
000
1FF
000
000
1FF
000
000
1FF
1FF
1FF
000
1FF
1FF
1FF
1FF
1FF
1FF
1FF
000
000
1FF
1FF
000
000
1FF
1FF
000
000
000
000
000
000
1FF
1FF
1FF
1FF
000
1FF
000
1FF
000
1FF
1FF
1FF
1FF
1FF
1FF
000
1FF
000
1FF
1FF
000
1FF
1FF
1FF
000
1FF
000
1FF
000
000
1FF
1FF
1FF
1FF
000
1FF
000
1FF
1FF
1FF
1FF
1FF
000
000
1FF
000
1FF
000
1FF
1FF
1FF
000
000
000
000
000
000
000
000
000
000
000
1FF
1FF
1FF
1FF
1FF
000
1FF
000
000
000
1FF
000
000
000
001
000
000
1FF
1FF
1F0
1F3
1FF
1FE
1FF
1FF
1FB
1FF
1FF
1FF
1FE
1FF
1FF
1FD
1FE
1FD
1FF
1FF
000
1FF
1FF
002
000
000
000
002
003
001
000
003
008
000
1FF
1FF
1FF
1FF
1FF
1FF
1FF
1FC
000
1FE
1F8
1FC
000
1FF
1FF
1FF
000
004
1FE
1FF
001
001
001
000
1FF
1FF
1FF
000
1FF
1FF
1FF
1FF
001
000
001
1FE
1FE
1FE
1FE
1FE
001
1FC
1FF
1FF
002
001
1FE
1FE
001
000
1FF
1FD
1FE
1FF
000
001
002
004
1FF
006
018
1FF
1FF
1FF
1F7
1FF
000
00E
003
1FF
000
000
000
005
1FF
011
002
1FE
000
1F5
1FA
006
01B
002
029
00B
004
1FE
000
003
01E
000
1FF
1FF
00D
001
001
1FF
000
000
1FE
1FE
003
008
001
1F0
000
1FF
000
008
001
1FE
1FF
1FF
1FB
1FF
1FD
000
000
001
000
1FC
000
004
002
000
000
1FF
1F9
1F0
001
002
000
000
001
001
004
002
1FE
1FE
1FE
001
002
000
1F7
1FE
1FE
1FF
000
1FF
1FF
1FE
000
1FF
1FF
000
000
1FC
1FF
001
1FF
000
006
001
002
000
1FF
001
027
004
002
000
1FD
1FE
1FE
1E6
000
1F6
1FE
1FF
000
1FF
000
1FF
000
1EE
000
001
1FE
000
001
000
001
001
001
023
015
1FE
000
1FF
1FE
1FC
1E2
000
001
1FE
1FF
1F9
000
000
1FF
000
000
1FD
000
1FF
00A
002
1FF
000
011
004
017
026
011
1FE
000
1FF
1ED
1E3
1FD
001
002
1FE
1FF
1FF
1FF
000
000
000
1FE
1FF
1FD
1FF
000
1FF
1FF
1FF
000
1FE
1FF
011
00A
1FE
000
000
1FC
1FD
1FC
1FF
1FF
1FF
1FF
000
1FF
1FF
1FF
000
1FC
000
1FD
1FD
1FF
000
000
000
1FF
000
01C
000
000
1FF
1FF
1F8
1FD
1FE
1FF
1FF
000
000
1FF
1FE
1FE
000
1FF
000
000
1FA
1FE
1FD
1FF
1FA
000
000
000
003
00F
000
005
1F0
1FE
1FE
1FF
001
005
00B
001
008
1FD
1FF
1FF
1FF
1FC
000
1FF
000
1DA
1E6
1CE
1DB
1D3
1D1
1F9
1D0
1FF
1F8
1F9
1DF
1FF
1FF
006
003
012
000
014
013
1FF
1FF
1FF
000
1FF
1FF
1FF
1FE
1E9
1FC
1EE
1DA
1EC
1BF
18F
195
186
1B1
1C6
1E6
1FF
001
003
003
00C
01D
012
000
000
1FD
000
000
1FE
1FF
000
001
1FF
1FE
1FE
1FE
1FE
1FE
1E4
1DB
1CD
1C9
1FD
1FB
000
004
000
000
000
006
1FF
1FE
1FD
1FF
000
000
000
1FF
002
008
000
1FF
000
1FF
1FE
1FE
1FE
1FF
000
1FF
1FD
000
002
001
000
1FF
1FF
001
1FF
002
000
1FF
000
000
000
000
000
000
000
000
000
1FF
00B
00B
1FF
025
010
006
000
000
003
000
1FE
1FE
1FF
00A
014
00D
000
000
1FF
1FF
000
000
1FF
000
000
1FF
1FF
010
023
03E
000
034
03A
02C
00A
005
000
1FF
1FE
000
014
000
001
003
1FE
000
1FF
000
000
1FF
002
001
000
1FF
1FF
002
011
01A
013
00C
00E
003
019
002
000
001
001
001
000
1F7
000
001
002
005
1FF
1FF
000
000
007
00B
000
023
1FF
001
017
004
02C
02A
02B
000
001
002
019
004
001
1FF
1FF
000
1FE
1FF
1FF
000
1FF
1FF
000
1FF
1FE
001
000
1FD
008
021
002
000
000
000
000
1FD
1FE
1FF
000
1FF
1FE
1FA
000
001
1F8
1FC
000
1FF
1FF
1FF
000
1FF
000
000
1F9
1FB
1FF
000
1FF
1EA
000
001
1FE
1FF
000
005
1FF
1F3
1F5
1FC
1FB
1F7
1EC
1F9
000
1FF
000
1FF
1FF
1FF
000
1FF
1FF
1FC
1FE
1F8
000
1FF
001
002
1FC
000
000
1FF
1FE
1FF
1FF
1FF
1FF
1FD
1FA
000
000
000
1FF
1FF
000
1FF
1FF
000
1F8
1F9
1FB
000
1FF
1FC
1FC
000
000
000
1FF
006
000
000
1FF
000
000
1FF
1FF
000
000
000
000
1FF
1FF
1FF
1FF
1FF
1FF
1FF
1FF
000
1FF
000
000
1FF
1FF
1FF
000
000
1FF
1FF
1FF
000
000
000
000
000
1FF
1FF
1FF
1FF
000
000
1FF
000
1FF
000
1FF
000
1FF
1FF
000
1FF
000
000
1FF
000
1FF
000
000
1FF
1FF
1FF
000
000
000
1FF
1FF
000
1FF
1FF
1FF
000
000
1FF
1FF
1FE
000
000
000
000
000
1FE
000
000
000
000
000
000
000
000
000
000
1FF
000
000
000
000
1FF
000
000
1FF
000
000
000
000
000
000
000
000
1FF
1FE
1FF
1FF
000
001
001
000
000
000
000
000
000
1FF
000
1FF
1FF
000
1FF
1FF
000
000
001
005
004
001
000
1FD
1FD
1ED
1FF
1F9
000
001
001
001
000
002
000
000
1FF
000
000
000
000
000
000
001
1FF
1FE
000
004
01E
001
000
1FF
1FD
1FE
1FE
1FE
1FC
000
1E4
000
1E1
000
000
000
000
000
1FF
1FF
1FF
000
001
003
001
1FE
1FF
001
009
000
000
1FF
1FF
1FF
1FF
1FE
1FF
1FF
000
000
1FF
1FE
1F8
000
000
001
000
1FF
000
004
000
001
1F4
1FB
000
1FF
000
000
000
000
1FF
1FD
1FA
1FE
1FE
1FE
1FD
1FF
1FF
1FF
1FD
002
001
005
000
1FF
1FF
000
1FF
1FD
1FC
1F8
1FE
002
000
001
011
1FE
1FC
1FC
1FA
1F8
1FF
002
1FF
1FD
006
002
000
004
003
1FF
000
000
000
004
000
1FE
000
000
1FF
000
000
1FF
001
000
1FD
1FE
1FC
1FE
006
006
1FF
000
003
002
1FF
000
1FB
1F9
000
000
000
000
1FF
000
003
000
1FF
1FF
1FF
002
1FF
1FF
001
000
1FF
1FF
008
000
000
029
00C
004
001
000
1FD
1FD
1F6
000
1FF
1FF
001
001
000
1FF
000
00F
00D
00C
016
002
002
001
000
001
023
005
00D
001
00C
00E
002
000
1FF
1FF
1F7
000
000
000
005
000
000
1FF
01D
00E
000
015
012
001
000
00A
1FF
019
009
005
003
000
002
016
001
1FF
1FE
000
1FE
1FF
000
1FF
002
000
00E
002
01C
001
1FF
002
000
000
00D
001
1FD
023
015
00B
001
004
017
003
001
002
003
1FC
1FA
000
000
000
001
000
000
001
000
000
001
002
1FF
00F
00E
003
00F
006
01B
03E
01A
003
02C
027
001
1FD
1FE
000
000
1FF
1FF
1FF
001
1FF
000
000
000
1FF
000
01D
007
003
1FF
005
024
002
019
000
1FF
004
018
002
000
1FD
1FE
010
000
000
000
000
000
1FC
1FF
1FF
000
000
000
005
00A
000
1FF
1FE
1FF
000
001
1FF
1FF
001
000
1FF
1FF
1F0
000
000
000
000
1FF
000
000
1FD
1FD
1EF
1ED
1E9
1CC
1F1
1E7
1BF
1EA
1E3
1EC
000
001
1FF
1FF
000
000
1FE
1FD
000
006
008
000
003
000
000
1FA
1FF
1F2
1BF
1B6
1AA
1B3
1A2
1C4
1B9
1E2
1EB
1E8
1FF
000
000
000
1FE
1FF
1F6
1EB
1FF
000
000
000
000
000
002
1FB
1FF
1EC
1E8
1CF
1F1
1DA
1D9
1FD
1F5
1DC
1FC
1FA
1F3
1EE
1F8
1FF
1F9
1F1
1E0
1F3
1FE
000
000
1FF
000
1FF
1FF
1FC
1FC
1E0
000
1F8
000
000
000
001
001
1FE
1FF
1E8
1FF
1DD
1F5
1EB
1E3
1FD
1FF
1F3
1F2
000
1FF
1FF
000
1FF
000
1F3
1FE
1FE
000
000
001
002
007
1FF
006
1FF
1AA
1C2
1FD
1F0
1FF
1F0
1FC
1FD
1FF
1F9
1FD
1FF
000
000
1FF
1FF
000
000
000
1FF
1FE
000
002
011
01C
000
000
000
1F6
1EF
1FD
1FB
1EA
1FC
1FD
1E5
1FC
1F3
1FE
1FF
000
1FF
000
1FF
1FF
000
1FF
001
000
1FF
1FF
000
000
001
000
1FF
1FF
1CE
1F2
1FF
1FF
1FD
1FB
1FA
1FE
1FC
1F9
003
000
1FF
000
000
000
000
1FE
011
004
023
1FF
000
00B
1FF
1FE
1FE
1E5
1DF
001
001
1FE
1FD
1FD
001
004
1FC
1F9
000
1FF
000
1FF
000
000
001
1FD
000
1FB
1FF
1FE
000
1FE
000
1FF
001
002
1E9
000
000
00A
1FF
001
004
005
1FF
1F8
1FF
000
1FF
000
1FF
000
000
1FF
001
002
003
1FF
1FE
1FD
1FD
000
001
1FF
1FF
000
001
000
000
000
001
004
000
1FF
000
1FF
000
000
1FF
1FF
1FF
000
1FF
000
1FF
1FF
1FF
000
000
1FF
000
001
001
000
000
000
000
000
002
001
000
000
1FF
1FF
000
1FF
000
1FF
000
1FF
1FF
000
1FF
1FF
000
000
1FF
000
1FF
1FF
1FF
1FF
1FF
1FF
000
000
000
000
1FF
000
000
1FF
1FF
1FF
1FF
000
000
000
000
1FE
1FE
000
000
000
000
000
000
000
1FF
1FE
1FF
1FF
000
000
000
1FF
1FF
1FF
000
000
000
1FF
000
1FF
000
1FF
1FF
1FF
1FF
000
1FF
1FF
000
1FF
1FB
1FF
1FF
002
1FF
1FF
1FE
1FF
1FF
1FF
000
000
1FF
1FF
1FF
000
000
1FF
1FF
000
1FF
000
1FF
1FC
1FA
1FE
1FB
1EF
1F9
1F3
1FF
001
004
009
1FC
1FF
001
001
1FF
1FF
000
1FF
000
000
000
000
1FF
000
000
1FF
001
000
1EF
1FA
1F6
1DB
1EA
1E4
1FD
1FF
000
011
00D
002
008
00A
000
1FF
000
000
1FF
000
000
1FF
1FF
1FD
1FD
001
000
1FF
1EE
1FE
1F3
1FE
1FF
1FF
1FE
1FF
1FF
1FF
007
002
002
000
1FF
1FE
008
000
1FF
000
1FF
1FE
1FF
1FE
1FF
000
1FE
1FA
1E2
1FE
1FE
000
000
000
001
000
1FF
000
002
008
00C
000
1FF
1F9
1FF
000
000
000
1FF
1FD
1FE
1FF
1FF
1FF
1FE
1FF
000
000
1FF
001
000
1FC
1FD
1FC
1FE
004
019
000
00B
002
1FF
1FF
1FC
000
000
1FC
1FF
000
1FF
1FF
001
002
002
003
002
001
001
000
1FD
1FB
1FC
1F6
1FD
019
007
007
00B
000
1FE
000
000
001
001
000
000
1FF
1FF
1FF
002
004
003
003
004
001
1FF
1FF
000
1FE
1F7
1D6
1FF
001
010
017
005
1FF
001
001
010
003
002
1FF
000
1FF
001
006
005
005
002
001
000
1FF
1FF
1FF
1F6
1E4
1B1
1F2
000
01D
016
007
000
000
000
000
001
1FF
000
000
000
000
1FF
009
004
001
001
000
000
001
1FF
1D9
1C4
1FD
1FD
1FE
026
020
013
01B
016
000
1FF
000
001
1FE
000
000
1FF
000
000
005
001
000
1FF
1FF
001
1F9
1D5
1E6
1FE
1FE
1FF
01F
03F
01E
027
00F
00D
1FF
1FE
1F8
1FC
1FB
012
1FF
1FF
000
1FF
1FE
1E5
000
1FF
1FE
1FF
1F2
000
000
000
002
026
013
03A
016
003
000
1FF
000
1FD
1FB
001
006
1FF
1FF
1FF
1FF
1FE
1FD
1F1
1EB
1FE
1FE
1F2
1FE
003
012
00B
020
011
026
04D
000
001
1FF
1DF
1DB
1FA
1F9
000
1FF
000
1FF
000
000
1FF
1FC
1D8
1D5
1F4
1FF
1FD
1FF
001
00A
01A
00C
01C
02F
1FF
1F5
1EA
1E0
1E7
1FF
1FB
1FE
1FF
000
1FF
1FF
1FF
000
000
1FE
1FD
1FF
1FE
000
000
000
001
007
026
00F
007
00A
1FF
1FA
1FD
1F9
1FC
1FE
001
1FF
1FF
000
1FF
000
000
000
1FD
1FE
1FE
1E5
000
000
1FF
000
001
01D
01E
000
000
1FF
1FF
1D0
1F5
1FD
1FE
1F1
002
1FE
1FF
000
000
004
000
000
1FC
1FE
1FD
1EB
1FF
1FE
1FF
1FF
1FF
1FF
007
007
1FF
1FF
000
000
1EB
1FD
1FF
000
1DF
1FB
1FC
000
1FF
000
1FF
1FD
1FF
1FF
1FD
1FD
1F5
1FB
1FE
1EE
1CD
1F1
000
1FF
1FD
000
002
000
1FE
1FB
1FE
1FF
1F0
1FC
1FC
000
000
000
000
1FD
00E
014
1FF
1FE
1FF
1FF
1F7
1E4
1F2
1FF
000
000
1FD
1FF
001
1F0
1FF
1F2
1E1
1FF
001
1F9
1F9
000
000
000
000
1FF
1FF
1FD
001
1FF
1FF
1FF
1FE
002
001
1FF
1FF
1F7
1F5
1FB
1FC
1FA
1FF
1FA
1FF
001
000
1FD
1F7
000
000
1FF
1FF
000
1FF
1FB
1FE
006
000
1FE
1FE
000
00C
1FF
1FF
1FE
1FF
1E8
000
001
001
000
000
000
1E9
1FD
1FD
000
1FF
000
1FF
000
1FF
1FC
1FD
1FF
000
000
1FF
1FF
000
1FE
1FF
000
000
1FF
000
002
001
001
1FF
1FF
1FC
1FD
007
1FF
1FF
1FF
1FF
1FF
000
000
1FE
008
1FF
000
1FD
1FE
1FF
1FE
002
000
1FF
1FF
001
002
001
001
000
002
004
1F3
000
1FC
000
1FF
000
000
1FF
1FF
1FF
1FE
001
018
1FE
002
005
004
000
1FF
1F9
000
000
1FF
005
000
1F5
000
004
000
1FD
1FC
1FF
000
000
1FF
1FF
1FF
1FE
1FF
002
007
014
005
005
001
1FC
1FD
1FC
000
000
000
00D
010
000
002
1FF
000
1FF
1FF
000
000
1FF
000
000
1FF
1FF
000
000
000
000
1FF
000
000
1FF
005
005
1FF
000
000
000
1FF
1FF
000
1FF
000
1FF
1FF
000
1FF
1FF
000
1FF
000
000
000
000
1FF
000
000
000
1FF
1FF
000
1FF
1FF
000
000
1FF
1FF
1FF
000
000
000
000
000
000
000
1FF
000
000
000
1FF
1FF
1FF
1FF
1FF
000
1FF
000
000
1FF
001
002
001
000
000
1FF
1FF
1FF
1FF
1FF
1FF
000
000
000
000
000
1FF
1FF
000
1FF
1FF
1FF
1FF
1FF
1FF
1FF
000
002
001
000
002
1FF
1E1
1FD
1FF
1FF
1FF
1FF
000
1FF
1FF
1FF
000
1FF
1FF
000
1FD
1FE
1FF
000
002
000
1F9
1F7
1FE
1FD
1FE
000
000
1FF
1F6
1FB
000
001
000
1FF
1F9
000
000
000
1FF
1FF
1FF
1FF
1FB
000
019
000
000
000
1FF
007
021
008
1FE
00D
1FF
1FD
1FC
1FE
000
1FF
1FD
1FE
000
001
1FF
1FF
1FF
1FF
1FD
1FD
1FB
010
002
002
1FF
000
000
1FE
000
1FE
1FF
1FE
1FE
1FE
1FD
1FD
1FF
000
000
000
009
000
003
000
1FF
1FF
1F9
1FB
1FB
1FF
000
000
1E7
001
1FF
1FE
004
00A
000
009
001
000
1E3
1E8
1FF
1FD
1FD
1FC
000
000
001
1FF
1FF
001
1FA
1FC
1FB
1F4
1D5
001
1EE
1FD
1FF
000
012
019
036
012
1FF
002
1E2
1C7
1FB
000
1FA
1FC
1FD
000
001
1FF
1FF
1FF
1FA
1FA
1F2
1DE
1CA
001
001
002
000
000
1FF
1FF
1FF
1FF
001
025
002
1F4
1EF
1FF
1DB
1E7
1FF
000
1FF
000
1FF
1FF
1FB
1FD
1FA
1FB
003
003
00A
01F
011
1FD
1FF
1D7
1F7
005
01C
01F
01B
001
1FF
1E5
1E3
1EA
1FF
1FF
1FF
000
1FF
1FF
1FF
1F4
1FF
001
005
002
001
001
001
000
1E2
002
001
014
00C
025
02E
000
1F2
1D3
1FF
1E5
1FF
1FF
1FF
1FF
000
1FF
1FC
000
000
007
003
1FA
002
003
002
001
002
002
002
009
024
042
022
001
1FF
1C9
1E2
1FE
1FF
000
1FF
000
000
1FE
1FE
1FF
001
008
001
1FF
003
001
001
000
001
016
003
002
02E
1FE
00D
1FE
1FF
1CF
1F0
1FE
1F7
1FF
1FF
1FF
1FF
1FF
1FE
1FD
001
002
1FC
1FE
000
1EB
1FF
003
004
010
001
001
001
1FB
1FF
1CB
1FE
1FF
1ED
1FC
1FC
000
1FF
1FF
1FF
1FF
1FC
001
000
1FB
1FD
1F6
1F0
1F2
1FF
1FF
000
01B
002
002
001
000
1FE
1C2
1C4
1ED
1FC
000
1FF
1FF
1FF
000
1FF
1FF
000
001
002
1FF
1FE
1FE
1FE
1FB
1FE
1FF
006
006
1FD
1FF
000
000
1E9
1FA
1D0
1FD
1FC
001
000
1F9
1FF
000
1FF
1FF
1FA
002
000
1FF
1FE
1FE
1FF
1FE
03C
00E
1FF
000
1EB
1FE
1F5
1E4
1CC
1E2
000
007
005
1FF
000
1FF
1FF
1FF
1FD
1FC
000
001
001
1FE
1F5
1FC
1FD
01C
009
001
1FF
1F2
1FD
1F2
1F7
1D2
1C5
001
000
001
1FF
1FE
003
002
000
000
000
1FF
000
000
000
1FE
1F0
1FD
1FC
1FF
001
001
1F1
1E4
1FF
1FF
000
1F7
1ED
000
001
005
1FD
1FE
1FE
006
1FF
1FF
000
1FF
1FF
1FE
1FF
1FE
1FE
1FE
1FE
011
001
001
000
1FA
000
000
000
1FF
1FE
001
003
00E
1FC
1FC
1F9
1FF
1FF
000
1FF
1FF
001
002
000
1FE
1FF
1FE
1FF
001
002
001
000
000
1FF
000
000
000
001
002
005
003
01B
1FE
1FC
1FF
1FF
1FF
000
1FD
1FF
000
1F2
1FF
1FF
001
005
000
001
1FF
00C
1FE
1FE
001
000
000
001
002
007
003
012
000
1FE
009
1FF
1FF
1FF
1FE
1FF
1FF
000
000
1FE
00B
000
001
000
1FD
1FF
1FE
1FF
000
1FF
001
002
00A
00B
004
003
003
1FE
1FF
000
000
1FF
000
1FF
1FF
1FF
1F9
1FD
1FD
1FF
004
001
019
004
000
000
000
000
000
002
00C
003
019
1FF
005
000
1FF
1FF
1FF
000
1FF
1FF
1FE
1FF
1ED
1ED
1FF
1FE
1FF
1FE
1FF
1FF
000
006
00D
001
001
000
1FA
000
000
000
002
1FF
002
000
000
1FF
1FF
1FF
1F2
000
003
1E9
001
1C9
1E5
1EC
1F1
1FA
1FD
1FE
009
010
000
1FC
00D
009
000
1FD
1F7
005
006
1FF
000
000
000
1FF
000
1FE
1FF
1FF
000
1FF
001
003
000
1FE
000
00A
007
006
003
1FE
004
006
003
1FF
1FF
1FF
000
000
000
000
1FF
1FF
1FF
1FF
1FF
1FF
1FF
1FC
1FF
1FF
1FD
001
003
003
1FF
1FF
1FF
1FF
1FF
1FF
1FF
000
1FF
1FF
1FF
000
1FF
000
1FF
000
1FF
000
1FF
000
1FF
000
1FF
000
000
000
1FF
1FF
000
000
1FF
000
000
000
000
1FF
000
000
000
1FF
1FF
000
1FF
000
000
000
1FF
1FF
1FF
1FF
1FF
000
1FF
1FF
1FF
1FF
000
1FF
000
000
1FF
000
1FF
000
1FF
1FF
1FF
1FF
1FF
000
000
1FD
1FF
000
1FF
000
1FF
000
000
1FF
1FF
1FF
1FD
1FD
000
000
1FC
1FA
1FF
000
1FF
1FF
000
1FF
000
000
000
000
000
1FF
1FF
000
000
000
1FF
000
000
000
002
000
000
1FE
000
000
1FE
1FD
1FF
1FF
000
000
000
00C
002
000
000
000
1FF
1FF
000
000
000
000
1FD
1FF
1FF
002
011
000
1FF
1FF
1FF
1E9
1E7
1F7
000
000
000
000
000
000
000
1FF
1FF
000
1FF
000
000
000
000
1FD
1FF
1FF
001
004
008
006
025
1FF
000
000
001
000
1EF
001
000
1FE
1FE
000
1FF
1FF
1FF
1FF
1FF
000
000
001
000
1F3
000
000
000
000
1FF
026
011
03F
00D
005
000
1FE
1FF
001
1FF
1FE
1FE
000
000
1FF
000
000
1FF
1FF
000
000
000
1FF
001
001
001
000
1FF
001
1FF
017
050
01D
014
1FF
1FF
000
1FD
1FE
000
000
1FF
000
001
1FF
000
000
001
002
001
001
002
003
00D
002
1FE
1FD
1FE
001
009
00C
03A
001
1FF
1FF
1FD
1F4
000
000
1FF
1FF
000
1FF
000
000
001
001
002
001
001
001
002
1FE
1FC
1FC
1F8
1FF
000
002
033
003
000
1FF
1FE
1FF
000
1FE
1FF
00F
1FF
000
000
000
002
003
001
000
002
000
000
1FF
1F1
1FE
1FB
1E1
000
000
008
001
002
1FF
1FE
1FE
000
1FF
1FF
000
000
000
000
000
001
002
1FF
001
1FF
1FF
000
001
1F0
000
1EF
1F6
1FF
000
1FF
000
005
000
1FE
1FD
1FE
000
000
000
1FF
1FF
1FF
1FB
001
1FF
001
000
1FE
1FD
000
1FC
1FA
1E9
1FE
001
1FF
1FF
000
013
004
001
1F2
1FC
1FC
1FA
1FF
1FF
000
1FF
1FF
1FB
1F9
000
002
1FE
1FF
1F4
1FF
1FC
1FF
1DA
1F7
000
1F4
1FE
009
01D
002
000
1FE
1FE
1FD
1FD
1FE
1FE
1FF
000
000
001
001
00B
1FF
1EA
1E5
1FC
1FC
1FE
1FF
1FE
1FE
1FF
1D0
1FF
004
002
004
000
1FF
1FF
1FD
1FF
1FF
1FF
000
000
000
1FD
003
00E
001
1FC
1FE
1FB
1FA
1F8
1FD
1FD
1FE
1FE
1FE
000
000
000
000
000
1FE
000
1FF
000
1FF
000
000
000
000
001
002
003
002
1F5
1FA
1FE
1FD
1FC
1FE
1F6
1F5
1F9
1FD
000
1FF
1FE
1FD
1F7
000
1FB
1FE
1FF
1FF
000
000
000
000
000
002
001
000
1F4
1FE
1FE
1FE
1FF
000
1FE
1F8
1FF
1FF
1FF
001
1FF
1FD
000
1FE
1F9
1FD
1FF
000
000
000
1FF
000
000
1FF
1FA
1FF
1FD
1FF
000
000
005
002
1F5
1E2
1FF
000
00B
011
001
000
000
000
1FF
1FE
1FF
001
000
1FF
000
000
000
000
1FF
1FF
1F8
1FF
000
00D
001
003
1EF
1F9
001
001
00C
002
000
000
000
1FE
1FE
1FF
000
000
000
000
002
000
000
1FE
1FF
000
1FF
1FF
1FF
000
004
002
1FF
001
003
002
000
1FF
1FF
000
1F3
1F0
1FD
000
1FF
1FF
1FF
1FF
1FF
1FF
000
1FD
1F9
1FF
1FF
1F7
1F8
1FF
002
005
001
00F
014
001
1FE
1F6
1FF
1F5
1EE
1FE
1FD
1FF
1FF
006
000
1FF
000
1FF
000
1FB
1FD
1FF
1FE
1DE
1FC
000
000
024
01C
021
002
1FF
1FF
1D4
1E6
1DB
1F1
1FD
1FD
000
000
1FF
000
000
1FF
1FF
1FF
1FC
1FD
1FF
1FF
1FE
1FD
1FF
001
002
002
1FF
1FD
1FE
1F8
1FF
1FD
1FE
1FA
1FE
000
000
1FF
000
1FF
1FF
000
1FF
1FF
000
000
000
000
001
000
000
001
005
001
000
1FC
1FF
1FF
1FE
000
000
1FF
1FF
1FF
000
1FF
1FF
1FF
000
1FF
000
1FF
1FF
1FD
1ED
1FE
1FF
000
01B
00D
001
001
1FE
1FC
1FD
1FC
1FD
000
1FF
1FF
000
1FF
000
1FF
1FF
1FF
1FF
1FF
1FF
000
1FB
1FA
1FD
000
000
1FF
004
002
001
1FF
1FD
1FB
1FF
000
1FF
000
000
1FF
1FF
1FF
000
000
1FF
000
000
1FF
1FF
000
000
000
000
1FF
1FF
1FF
000
000
000
000
000
000
000
000
1FF
1FF
1FF
000
1FF
000
1FF
1FF
000
000
1FF
1FF
1FF
1FF
000
1FF
000
000
1FF
000
1FF
1FF
000
000
000
1FF
000
000
1FF
1FF
1FF
000
000
000
1FF
1FF
1FF
1FF
1FF
1FF
000
000
1FF
1FF
000
1FF
000
1FF
000
000
000
000
000
004
000
1FF
000
1FF
000
000
000
000
000
1FF
000
000
1FF
1FF
000
000
1FF
000
1FF
1FF
000
000
000
000
000
02A
1FD
01F
000
000
000
000
000
000
1FF
1FF
000
1FF
000
1FF
000
000
1FF
000
000
000
000
000
000
1FC
1FD
1FC
001
002
000
015
026
003
001
001
001
001
1FF
1FE
006
1FC
000
1FF
000
000
000
000
1FF
000
000
003
001
008
1FF
1FF
006
00C
00F
023
1FF
000
001
002
001
004
001
000
1FF
1FC
000
000
000
000
000
000
1FB
01A
007
002
1FF
1FE
1FC
1FE
1FF
00F
014
009
000
1FE
002
003
002
000
000
000
000
1FB
000
000
000
000
1FC
1FF
1FC
1FF
000
001
1FF
1F5
1FE
023
00F
005
1FE
002
000
000
000
001
000
000
000
000
000
1FE
000
008
000
000
1FD
000
1FC
000
000
001
000
000
000
022
00B
001
01F
001
001
1F3
001
000
000
000
000
000
000
000
000
002
1FF
000
1FD
1FF
1F0
1FF
001
002
001
1FF
001
008
027
005
019
001
1F0
1F9
1F6
1F8
1FF
1FF
1FF
000
000
000
1FF
1FF
000
1FF
1FF
1FF
1FF
000
000
010
00F
000
000
017
003
03A
005
000
1CE
1E9
1ED
1D9
1DB
000
1FF
1FF
000
000
000
000
000
000
000
1FF
1FE
1FF
1FF
000
00A
000
000
001
016
016
002
000
1CE
000
1F7
1D8
1FA
1FF
1FF
1FF
000
1FF
000
1FF
1FF
000
000
1FE
1FE
001
1FF
1FE
1FD
1FE
1FE
1FC
1FE
1FE
1FF
1F3
1FA
1FE
000
1F0
1D7
1FE
1FF
000
000
1F0
1FE
004
1FF
1FF
1FF
000
1FF
000
1FF
1FF
1FD
1FF
1FF
1FD
1FD
1FE
000
1FF
1F5
1F6
000
1FF
000
1FF
1FF
000
1FF
1FA
1F7
000
1FF
000
000
1FB
002
000
1FE
1FE
1FD
000
000
1FC
1FD
1F8
1FF
001
1FF
1FE
1EB
1FC
000
1FF
1FF
000
000
000
000
1FF
1FF
000
1FF
1FE
1FF
1EB
1FF
1FF
1FF
000
000
1D1
1F4
1F6
000
001
000
1F3
1F5
1F9
000
1FF
000
000
000
000
000
000
1FF
000
000
1FF
1FE
1F7
1FE
1E1
1FB
000
1FD
1FA
1F8
000
002
002
000
1FF
1F5
1FC
1FF
1FE
1FF
000
1FF
1FF
000
000
1FF
1FF
1FF
1FF
1FC
1FE
1DA
1D3
1F4
1E3
1F8
1F3
1EC
000
00E
002
1FF
1FB
000
000
001
1FF
1FF
000
1FF
000
1FF
1FF
1FF
1FF
000
1FF
1F1
1FE
1F8
1EE
1EF
1E1
1FF
1F7
1FC
1FA
003
002
1FF
1FE
1FD
1FA
001
000
1FE
1FF
1FF
1FE
1FE
1FF
000
1FF
000
000
1FF
1FF
1FE
1FE
1FD
1D9
1D9
1AE
1D0
1DA
002
001
001
1FF
1FA
000
002
002
1FF
000
000
1FF
1FF
1FF
000
1FF
002
000
001
000
1FF
1FE
1FF
000
1E0
1CA
1E3
001
009
001
001
1FF
1FD
001
006
002
001
002
001
000
1FD
000
1FF
000
000
001
000
000
000
1FF
000
001
000
1F8
1E5
002
000
1FF
013
01C
018
000
003
002
01A
007
001
1FE
000
000
1FF
000
000
000
026
000
001
005
00C
01A
001
002
002
002
001
032
00F
1FF
00C
000
024
00A
002
002
1FD
1F6
1FF
000
000
1FF
000
000
002
001
000
000
005
005
002
003
004
002
008
000
000
00D
015
001
034
1FE
1FF
004
001
1FF
000
1FF
000
000
000
000
002
001
000
001
000
000
000
001
002
002
017
009
002
000
001
1FF
001
1FD
1FE
003
001
1FF
00A
000
1FF
000
000
000
000
1FF
1FF
007
003
002
023
002
019
000
1FE
1FE
1FA
1FF
1FF
1FF
004
001
1FE
006
004
1FC
1FC
1FF
000
1FF
000
000
000
1FE
000
000
000
001
001
001
000
012
1FF
000
1F4
1FB
1FF
000
1FC
1FB
1FC
002
016
1F9
1F8
1FF
000
000
000
1FF
000
1FE
1FF
1FF
000
000
000
001
1FF
001
001
1FF
1FE
001
001
1FF
000
1FE
1FF
1FD
000
000
000
1FF
1FF
000
1FF
000
000
1FF
000
000
1FF
000
1FF
000
000
000
000
000
000
1FF
1FF
1FF
1FF
000
1FF
000
000
1FF
1FF
1FF
1FF
000
1FF
1FF
1FF
000
000
1FF
1FF
1FF
1FF
1FF
1FF
000
1FF
1FF
000
000
000
000
000
000
000
000
000
1FF
1FF
1FF
1FF
1FF
1FF
000
000
1FF
000
000
1FF
000
000
1FF
000
000
000
000
000
000
000
1FF
000
000
000
000
000
000
1FF
000
1FF
1FF
1FF
1FF
1FF
1FF
000
1FF
000
000
1FF
1FF
1FF
1FA
1FD
000
002
005
002
000
1FF
1FF
000
000
000
1FF
000
1FF
000
1FF
1FF
000
000
000
000
000
1FF
1FF
000
001
1FF
1FF
1FE
001
001
001
002
000
1FF
1FF
1FF
000
000
000
000
1FF
1FF
000
1FF
000
000
000
000
000
000
1EC
1FB
1FF
1E5
1D6
1C7
1EE
1FE
000
000
000
1F9
1FF
000
000
000
000
1FF
1FF
000
000
000
1F9
002
000
002
001
000
1FF
1F2
1F9
1D6
1DB
1FB
1DD
1D4
1EC
1FF
1FF
000
000
000
000
000
1FF
000
1FF
000
1FF
1FE
001
001
1FD
000
1FD
1FF
011
001
1FF
001
002
000
1FE
1F8
1FF
1FF
1E4
1FF
000
1FF
000
000
1FF
000
000
000
000
1FA
001
001
1FD
1FD
1FF
001
029
00F
009
013
02F
015
000
1FF
000
000
1D9
1FB
1F8
1F0
1FD
1FF
1FF
1FF
1FF
000
000
1FF
001
003
1FF
1FF
1FF
010
010
014
021
02A
00C
01A
000
001
000
000
000
1FF
1FE
1FE
1E1
1FF
1FE
1FF
000
1FF
000
1FF
002
004
001
003
001
00A
03C
021
023
02D
022
004
024
00C
00B
001
000
1FF
1FD
1FE
1FF
1FF
1FE
1FE
007
000
000
1FF
003
001
002
011
000
009
02E
000
1FD
1FD
001
001
007
041
00C
001
000
1FF
1FF
000
000
1FF
1FF
000
000
1FF
000
000
000
011
001
1FF
000
014
1FF
1FF
1FF
1F9
1FF
1FE
00F
00D
000
000
000
000
1FF
000
000
001
1FE
000
1FE
1FF
1FE
1FF
1FE
000
000
015
000
003
1FF
1F6
1FD
1FB
1FF
1FE
1FF
1FF
001
001
001
000
000
1FF
001
1FE
1F6
1FF
1FC
1FF
000
1FF
1FE
1FE
1FE
000
1FF
1FF
1DC
1DF
002
002
1FF
000
1FE
1FF
001
005
000
1FF
1FE
1EA
1DF
000
1F9
000
1FF
1FF
000
000
005
1FF
1EB
1FE
1FE
1FF
1FC
000
005
003
000
1FF
1FD
1FD
000
002
002
002
1FF
1F4
1FC
001
1FF
000
000
000
000
000
000
1FF
000
1FF
1FF
000
1FB
1FF
001
1FF
1EB
000
1FE
1FD
1FF
001
003
009
006
1FD
1FE
001
1FE
000
000
000
1FF
000
000
1FE
001
001
002
1FF
1FA
1FF
000
000
000
1FD
1FE
1F2
1FF
002
002
004
009
000
1FF
1FF
1FC
000
001
1FF
1FF
000
000
000
002
002
003
000
002
002
000
001
002
1F8
1FA
1D9
000
000
00A
00C
005
000
1FE
1FF
1FF
000
002
1FF
1FF
000
000
001
001
000
000
000
001
001
001
003
001
1FA
1D2
1FF
001
000
004
012
001
1FF
1FE
1F8
1F3
1FF
000
1FF
1FF
000
000
003
000
000
000
1FF
1FF
1FE
1FF
1FF
1DC
1F4
1F0
001
001
002
006
000
001
000
1FF
1F9
1FE
1FF
1FF
1FF
1FF
000
001
001
1FF
1FF
000
000
1E1
1EA
1D8
1D0
1D7
1FF
1F1
000
000
1FE
000
000
000
001
000
1FE
000
000
1FF
1FF
1FF
000
000
1FF
1FF
1FF
1FF
1F4
1C8
1D7
1DD
1FF
1F9
1FF
000
1FF
1FC
1FF
000
000
000
007
000
000
000
000
000
1FF
000
000
000
1FF
1FF
1FF
1FE
1FE
1E3
1F7
1D9
1EA
1FE
1FE
1FF
1FF
000
000
001
000
000
001
1FE
1FF
002
000
000
000
1FF
000
1FF
1FF
1FF
1FF
1FD
1F6
1EF
1FE
000
1FF
000
1FE
1FF
1FF
000
008
001
1FF
1EC
1FC
1FD
1FE
000
1FF
000
000
1FF
000
000
1FF
1FF
1FD
1FB
1FC
1FF
000
1FF
000
005
004
1FE
007
00A
000
001
1FF
1FD
1FB
1FD
1FC
1FB
1FF
1FF
000
1FF
1FF
000
1FC
1FC
1FA
1FD
1FF
1FF
010
001
002
000
1FE
00B
02A
016
1FF
01A
1FE
1FE
1FB
1F8
1F9
1FF
1FF
000
1FF
1FF
000
1FF
1FA
1FB
1FB
1FE
1FF
1FF
002
002
01C
024
015
00B
00F
001
005
000
002
00F
000
001
1FF
000
000
000
1FF
000
1FF
000
1FF
1FF
000
000
000
000
000
000
000
000
001
000
1FF
1FF
1FF
000
1FF
1FF
000
1FF
000
1FF
1FF
1FF
1FF
1FF
1FF
000
1FF
000
000
1FF
1FF
000
000
1FF
000
000
1FF
1FF
1FF
000
000
1FF
000
000
1FF
000
000
1FF
1FF
1FF
1FF
000
1FF
1FF
1FF
000
000
1FF
000
1FF
000
1FF
000
000
1FF
000
000
1FF
000
000
000
1FF
1FF
000
1FF
000
1FF
000
1FF
1FF
000
1FF
000
000
1FF
1FF
1FF
1FF
1FF
1FF
1FF
000
002
001
1FF
1FF
1FF
1FC
1FF
1FF
1FF
000
000
1FF
000
1FF
000
1FF
000
1FF
000
000
1FF
1FF
002
1FF
000
1FF
1FF
002
1FE
1FD
1FE
1F0
1FC
1FC
1FE
1FF
1FF
1FF
000
000
000
1FF
1FF
000
1FF
000
1FF
1FF
1FF
000
002
1FF
1FF
1FF
1FF
1FF
1FF
1FF
1FF
1FF
1FE
1FD
1FE
1FD
1F8
1FE
1FF
002
002
000
1FF
000
1FF
1FE
001
000
000
1FF
1FE
1DD
1FA
1EE
1FF
1FD
1FF
000
1FF
1FE
1FC
1FD
1FE
1FF
1FF
1FF
000
000
1FF
000
000
1FF
1FF
1F8
1FD
000
1E8
1F4
1FD
1FF
000
000
1FE
1FF
000
000
000
001
00F
1FF
000
000
001
001
1FF
1FE
1FF
000
1FF
000
1F7
1F1
1FD
1FF
1FF
1FF
009
001
1FF
1FF
000
001
001
006
1FF
1FD
000
001
001
001
003
1FF
1FA
1FF
1FE
1FF
1FB
000
1F6
1F8
1FC
1FE
1FF
1FF
001
1FF
1FE
000
1FF
1FF
1FF
1FF
1FF
1FE
001
001
001
001
003
000
1EE
000
000
001
000
1FF
1FF
001
1FF
001
000
000
001
000
1FD
1FE
1FF
1FE
1FE
001
000
1FF
1F8
1FD
000
001
00D
00B
001
002
003
1FB
1FF
1FF
1FF
004
000
001
021
000
006
1FE
1FD
1FF
000
1CD
1FE
1FF
1FE
1F3
1FA
1FD
000
001
001
033
000
1FF
000
001
1FF
000
1FF
003
000
004
00E
00F
002
000
1FF
1FE
1FE
1D2
1E5
1FF
1EC
1E6
1F7
1FF
002
005
022
012
1FF
1FF
001
1FA
000
000
1FF
002
008
008
005
002
001
000
1FF
1FF
1FF
1DA
1CE
1B1
1E8
1FD
1FE
003
00E
00E
001
007
1FF
000
000
000
1FF
000
1FF
000
000
00A
002
003
001
000
1FF
001
001
1FF
1E6
1D7
1FD
001
001
003
023
004
000
1FE
001
000
004
004
000
1FF
1FF
1FE
000
000
003
002
000
1F0
000
005
00B
003
1FF
1FE
1FE
000
000
001
000
1FE
1FD
1FE
1FF
1FE
1FF
001
1FF
000
1FF
000
000
000
001
000
1FF
1FF
000
014
00F
036
02D
000
1FF
1FF
1FD
1FE
1F6
1D8
1DF
1E9
1FC
1FA
1FF
1FF
000
1FF
000
001
001
000
1FF
1FE
1FF
001
000
001
017
031
03C
01F
1FF
1F6
1FD
1FE
1F2
1E0
1D7
1F0
1FE
1FF
1FF
1FF
1FF
1FF
1FF
000
000
001
1FF
1FD
1FE
1FF
1FF
1FF
020
013
028
01E
001
1FE
1EF
000
1FF
1FC
1FC
1DD
1FE
1FF
1FB
1FF
1FF
000
1FF
000
000
001
1FF
1F8
1F3
1FD
000
002
006
01D
000
007
001
000
002
010
001
1FE
1FE
1FE
1FF
000
1FF
000
1FF
000
000
1FF
1FE
1FF
000
1FE
1FE
1FF
003
001
1FF
00E
00A
001
011
008
029
007
001
1FF
000
000
005
000
1FF
000
000
000
000
1FB
1FE
005
004
000
000
000
000
1FF
1F9
002
002
000
010
008
01A
001
002
000
1FF
003
003
1FF
1FF
1FF
000
1FF
000
1FB
1FE
000
010
001
001
000
000
1FE
1FC
1FF
1FF
1FF
000
005
020
005
002
001
1FF
000
00A
000
1FF
1FF
000
000
000
1FF
000
000
000
001
001
1F8
1FD
1FC
1F1
1FA
1FE
000
001
001
01F
001
000
001
000
000
000
000
000
1FF
1FF
000
000
1FE
003
001
000
000
000
1FC
1FE
1FD
1FB
1FD
001
005
004
001
00A
010
002
00C
010
000
1FE
1FF
000
1FF
000
000
1FF
000
1EF
1FA
000
000
1FE
1F1
1FD
1FE
1FF
001
006
1FF
1FF
00E
02F
011
000
000
001
1FE
1FC
1FF
1FF
000
1FF
1FF
1FF
1FC
1F9
1FA
00B
003
003
001
004
002
015
003
000
001
1FF
005
1FF
001
005
002
002
1FD
1F9
000
1FF
1FF
000
1FF
000
1FF
001
1FF
000
1FE
1FF
001
003
003
001
1FF
000
1FF
000
002
001
1FF
000
1FE
1FE
000
000
1FF
000
1FF
1FF
1FF
000
000
1FA
1FC
1FF
000
000
000
000
1FF
000
1FF
000
001
1FF
1FF
1FF
1FF
1FF
1FF
000
1FF
000
000
000
1FF
000
1FF
1FF
000
000
1FF
000
1FF
000
1FF
1FF
000
000
1FF
000
000
000
1FF
1FF
000
1FF
000
1FF
000
000
000
1FF
000
000
1FF
1FF
1FF
000
000
003
000
000
1FF
1FF
1FF
000
000
000
1FF
1FF
1FF
000
1FF
000
1FF
000
000
1FF
000
1FF
1FF
000
1FF
1FF
1FF
1FF
1FF
000
000
000
1FF
000
000
000
002
000
000
1FF
1FF
000
002
1FF
1F9
000
1FF
1FF
000
000
000
1FF
000
000
000
000
000
000
000
000
000
000
001
003
001
1FC
1FE
1FD
1FC
1C9
001
001
1DD
1FD
1FF
1FF
1FF
000
1FF
000
1FF
000
000
1FF
000
1FE
1F7
1FF
1FE
1FF
001
005
01C
001
002
002
002
000
1FC
1FE
1F8
1FF
1E3
1F1
1FF
1FF
000
000
000
1FF
1FF
003
1FF
1FC
1F4
1FB
1FB
1FD
1FE
005
007
01F
023
001
000
1FE
1FE
1FD
1FD
1FD
1FD
000
000
1FF
000
1FF
000
1FE
1FA
004
000
002
000
1FE
1FE
1FF
000
000
000
005
005
035
003
000
1FA
1FB
1FC
1EA
1D1
1EF
000
000
000
000
1FF
1FD
1FC
003
001
001
001
1FE
1FE
1FE
1FE
1FE
1FD
000
00D
01B
004
000
1FF
1FD
1FB
1F3
1D0
1FC
1FF
1FF
000
000
000
000
1FF
001
001
001
001
000
1FF
1FD
1E9
1F8
1FB
000
000
00A
006
000
1FF
1FD
1E8
1F4
1FE
1FE
1FE
000
000
1FF
1FF
1FF
000
1FF
000
001
001
000
1FF
1EF
1E1
1F7
1FB
000
02A
033
00E
000
1FF
1DE
1C4
1FF
1FE
1FE
1FE
1FF
1FB
000
000
000
1FF
000
001
001
000
1FE
1E1
1EF
1FC
1FB
1FF
034
02A
00F
02C
000
1FE
1B0
1C0
1FF
1FF
000
003
000
001
000
000
000
004
000
1FF
000
000
1F6
1FF
001
1FF
000
00C
035
02A
04A
1FF
1EF
1D0
1DD
1EB
000
1FF
001
005
003
005
1FF
002
1FF
003
1FE
000
000
000
000
1FF
001
000
1FF
00C
00A
008
013
1FD
1C3
1E5
1FF
1FE
1FF
1FF
009
000
1FF
1FF
000
000
000
003
1F5
1FF
000
000
1FF
001
1FF
1FF
1FF
01B
005
00A
01C
000
1FD
1FE
000
000
001
1FF
1FE
006
002
1FF
000
000
1FF
003
1FF
1FF
1F7
1FE
1FD
1FD
1EC
1FC
1FC
1FF
01A
011
019
001
1EB
1FE
1FE
003
002
1FF
1FD
003
000
000
1FF
000
1FF
000
1FE
1E3
1FA
000
1FF
1FE
1F7
1F9
1F8
004
018
018
1FE
1FD
1D6
1FD
1FF
002
010
1FE
1FF
001
000
000
1FF
000
1FF
000
1F0
1FF
1FE
000
000
1FF
1FF
1F9
1FE
1FF
01C
02C
1FE
1F2
1FE
1FE
1FE
000
001
000
1FF
1FF
000
1FD
1FF
1FF
1FF
1FD
1FE
1FE
1FD
000
000
001
001
001
000
000
000
000
1F3
1FE
1FB
1EC
1FB
1FF
003
002
1FF
1FF
000
1FD
003
000
000
1FE
1FD
1FD
1F9
000
000
000
1FC
1FF
1FF
000
000
1FD
1FD
1FD
000
1FC
1FF
000
003
000
017
006
000
000
000
1FF
1FA
1FE
1FF
1F6
1FE
001
000
001
000
1FF
1F6
1FF
1FF
1F1
1FF
1FF
000
000
002
003
002
000
002
009
1FF
1FF
1FF
1FF
1FE
1FF
1FE
1F1
000
000
000
000
000
000
000
1FF
000
1FF
1FF
1FF
001
001
002
003
000
1FF
002
000
1FF
000
000
000
000
000
1FE
000
000
000
00A
1FF
000
1FF
1FE
1FE
1FF
1FE
1F0
000
002
000
1FE
001
1FF
1FE
002
1FF
1FF
1FF
000
1FF
1FF
000
1FE
1FF
000
000
000
1FF
000
000
1E0
1F0
1FB
1FF
1FA
1FF
00E
001
001
001
1FF
1FF
000
1FC
000
000
1FF
1FF
000
1FF
1FC
1FD
1FD
1FF
1FF
013
002
000
1FD
000
1FF
1FF
1FE
1FF
000
007
018
000
000
1FF
000
1F9
000
1FF
1FF
1FF
000
1FF
000
000
000
1FF
1FF
000
000
1FF
1FC
1FF
001
1FD
1FF
1FD
1FE
008
000
006
002
000
1FF
000
000
000
000
1FF
1FF
000
1FF
1FF
1FF
1FF
1FF
1FF
1F1
000
1F6
000
003
001
1FE
1ED
000
000
001
002
002
003
1FF
1FC
1FB
1FF
000
1FF
1FF
1FF
000
1FF
1FE
1FE
1FF
000
000
000
1FF
1FF
000
1FF
1FF
1FF
000
000
1FF
1FF
000
000
000
1FF
1FF
1FF
000
000
1FF
1FF
1FF
1FF
1FF
000
000
000
000
000
000
000
001
003
000
000
1FF
000
000
1FF
000
1FF
000
1FF
1FF
000
000
1FF
1FF
1FF
000
1FF
000
000
1FF
000
000
000
000
1FF
1FF
1FF
000
1FF
1FF
000
1FF
1FF
1FF
000
1FF
000
1FF
1FF
1FF
1FF
000
000
000
001
001
000
000
1FF
000
000
000
1FF
000
000
000
1FF
1FF
1FF
1FF
1FF
000
000
1FF
000
000
000
000
000
000
000
000
000
000
000
000
000
000
001
000
000
000
000
000
000
000
001
000
000
1FF
000
000
1FF
1FF
1FF
1FF
1FF
1FF
000
1FF
1FE
1FF
1FF
000
000
1FF
1FF
000
000
1FE
1FC
1FF
001
002
003
001
1F5
1FD
1FF
000
004
003
1FF
000
000
1FF
1FF
000
1FF
1FF
000
1FF
000
000
1FF
000
000
000
1FE
000
003
002
009
000
1F8
000
000
1FD
000
1FF
000
000
000
1FF
004
003
1FF
1FE
1FF
000
001
000
1E0
1DB
1FF
1FF
001
001
000
003
002
1FF
000
000
1FF
000
1FF
000
1FF
1FF
1FF
1FC
000
1FD
1FE
1FF
000
000
000
000
000
1F6
1EE
1FF
1FF
001
000
000
000
1FF
1FF
1FF
1FE
1FE
1FF
1FE
1FE
1FF
1FF
1FA
1FD
1FD
1FF
1FF
000
000
001
002
000
1FD
1FF
005
000
000
006
1FF
1FF
1FF
1FF
000
1FE
1FF
000
1FE
1FE
000
1FF
1FF
1FF
1FE
1FE
1FE
1FF
001
00A
031
1FF
1FF
001
016
027
002
00B
1FF
1FE
1FD
1FE
1FF
1FF
1FE
1FE
1FF
1FF
1FF
1FF
000
1FF
1FE
001
004
005
003
00A
00B
001
001
1F9
002
006
005
01D
000
1FC
1F1
1FE
1FF
1FF
1FE
1F4
000
003
000
000
1FF
1FE
1FE
001
000
002
004
004
007
002
1EE
1F5
1F7
000
00B
001
000
1FE
1FE
1FE
1FF
002
004
001
003
000
1FF
1FF
000
1FF
1FE
001
000
1FF
000
002
002
000
1DF
1D4
1FF
000
1FE
1FF
000
1FE
1FF
1FF
1FF
000
000
002
1FD
1F9
1FF
000
000
1FF
1FE
000
000
000
1E7
1D5
1E3
1CD
1D3
1D5
1F5
1FE
1F2
1FF
000
1F6
1FE
1FE
1FF
1FF
001
001
007
1F6
000
1FF
1FF
1FF
1FE
1EE
1C1
1C3
1BA
1C4
1E2
000
1EE
1FF
000
1FB
1FF
1FE
1FF
1FF
1FF
000
000
000
000
1FE
1FF
1FA
000
1FF
1FF
1FA
1FD
1CF
1B7
1CB
1EF
001
000
1FE
1FF
000
001
1F9
000
000
1FF
1FE
1FF
002
002
000
00A
000
001
000
000
1FF
1FF
1F3
1EE
1E9
000
000
001
002
001
011
1FE
000
1FF
1F4
000
000
000
1F9
1F0
001
1FF
001
000
000
1FB
1FF
000
000
000
1FD
1F6
1FF
000
001
000
002
009
009
1FF
008
1F7
1F6
1FF
1F6
000
1FE
1FF
001
000
004
000
000
1FF
1FF
1FF
000
1FF
1FF
1FE
000
009
00B
000
000
000
1FF
1FF
000
1FB
1F2
1FE
1F4
1FE
1FF
1FF
000
000
000
000
003
000
000
000
1FF
000
000
000
1FF
1FE
000
000
1FE
1FE
00C
001
000
000
1E4
1EE
1FD
1FE
1FF
000
001
003
012
004
01A
000
001
1FF
000
002
000
1FF
1FE
1FF
007
1FF
1FF
1FF
005
025
000
1FD
1FD
001
000
000
000
000
001
002
009
002
01D
1FF
000
000
1FF
001
1FE
009
1FF
1FF
1FF
002
007
000
01F
002
001
001
002
002
001
001
002
00B
007
002
00A
002
000
000
000
000
000
009
000
019
1FF
1FF
1FE
1FF
009
1FF
1FF
000
003
002
001
000
000
001
011
00A
003
000
001
003
00E
010
1FF
1FF
1FF
1FF
000
000
00F
1FE
1FF
001
002
1FE
1FF
000
003
001
000
000
1FF
000
001
1FF
1FE
1FE
009
000
001
000
1FF
1FF
1FF
1FF
000
1FF
006
1FE
1FF
1FC
000
000
000
001
003
000
000
002
1FA
1FE
1FE
1FD
1FC
1FE
009
003
000
1FF
1FF
1FF
000
1FF
000
1FF
1FF
1FC
1EB
1F9
1FC
1F0
1F4
000
002
002
1FF
000
001
1FF
1FE
1FB
1FD
001
006
008
003
000
1FF
1FF
1FF
1FF
1FF
1FA
1FA
000
001
000
1FF
000
1FF
002
004
002
1FF
001
006
1FF
000
1FF
000
1FF
006
009
000
000
1FF
000
1FF
000
1FF
1F8
1F6
1FA
1FD
1FE
1FE
1FE
1FD
000
001
002
001
000
1FF
000
001
1FF
000
000
000
1FF
1FF
000
000
000
1FF
1FF
000
000
1FF
000
1FF
1FF
1FF
000
000
1FF
000
1FF
009
000
1FF
1FE
000
000
000
1FE
000
000
1FF
000
1FF
1FF
000
000
000
1FF
1FF
000
000
1FF
000
1FF
1FF
1FF
1FF
1FF
1FF
000
000
1FF
1FF
1FF
1FF
000
000
000
1FF
1FF
1FF
1FF
1FF
000
1FF
000
001
001
000
001
000
1FF
1FF
1FF
1FF
1FF
1FF
1FE
1FD
1FE
1FF
1FF
1FF
000
000
000
1FF
1FF
1FF
1FF
1FF
1FF
000
000
000
000
1FF
1FF
1FF
002
003
1FF
1FC
000
000
001
003
002
000
001
1FF
1FF
1FF
1FF
000
000
000
000
1FF
000
1FF
1FE
1FC
1FF
1FF
1FF
1FF
1FE
1FF
1FF
1FE
1F0
000
1F8
1F9
000
001
1FF
000
000
1FF
1FF
1FF
000
1FF
1FF
000
000
1FF
1FF
1FF
1FF
002
002
003
001
000
000
001
000
1FF
000
006
001
001
001
000
1FF
1FF
1FF
002
003
1FE
000
000
1FF
1FA
1FE
1FF
1FF
001
002
002
001
1FF
1FE
1FE
1FD
1FF
01E
00A
001
006
007
019
1FF
1FF
000
001
1FF
1FE
000
1FF
1FE
005
1FF
1FF
1FF
002
004
002
000
1ED
1FC
1FC
1FC
1FA
1FF
1FE
000
010
000
01D
004
017
1FF
1FF
1FF
1FF
000
1FF
1FA
009
011
1FE
000
00E
001
000
1FE
1FA
1FB
1FD
1FE
1E5
1FD
1FF
1FF
000
000
000
009
002
1FF
1FF
000
1FF
1FF
1FF
1FE
012
01A
001
000
000
000
1FB
1FD
1FB
1FD
001
000
1FF
005
1FE
1FF
00D
00C
1FF
001
001
1FE
1FD
1FF
1FF
000
000
1FF
1FF
001
014
000
008
000
1FE
1FE
1FC
1FF
00B
01D
002
1FE
1FF
1FE
000
00B
000
000
1FF
1FE
001
1FF
1FF
1FF
1FF
1FF
1FF
002
00C
020
000
011
03B
02D
028
027
028
1FE
1E9
1FE
1FD
1FF
1FF
000
000
1FF
1FF
000
002
1FF
000
000
1FF
003
000
011
007
028
040
022
026
005
008
1FF
1FE
1CE
1FB
000
00B
000
00A
000
1FF
1FE
000
001
002
000
000
000
1FF
008
001
00D
01A
000
044
01F
000
1FA
1E1
1F3
1B8
1CE
1E7
1FF
1FF
1FF
002
002
1FF
1FF
001
004
002
000
1FF
000
002
002
00A
003
000
1FE
000
000
000
1EA
1E5
1AD
1F2
001
1FF
1FE
1FC
1FE
1DA
1F0
1FF
000
000
001
001
001
000
1FF
007
002
000
000
1F8
1EA
1DE
1E1
1AC
1B5
1A0
1D7
002
002
000
1FB
1FC
1F7
1FF
1E6
1FF
1FF
001
1FF
001
1FF
000
000
1FF
1FF
1FB
1D8
1BD
1A7
19F
1B6
1C2
1BC
1F8
003
01C
003
000
1F9
1FD
1FE
001
1F6
1FE
1FF
000
000
001
1FF
000
000
000
1FF
1FF
1CB
1B6
1E8
1BB
1A8
1CD
002
004
005
014
01F
1FF
1FD
1FF
000
002
1FB
000
001
003
1FF
001
1FF
000
000
1FF
000
1FF
1FE
1F2
1E3
1E3
1FA
1FF
000
003
013
00E
003
000
1FF
000
009
002
1FF
1FE
000
001
001
01A
000
000
000
000
000
000
1FF
1FE
1F9
1FB
1FE
000
00D
016
00D
01B
005
005
1FF
1FF
001
000
1FE
1F5
1FF
1FF
1F2
1FF
1FF
000
000
000
001
001
1FE
1FE
1FD
1FE
000
000
000
00D
00D
004
005
01C
1FF
001
1FF
1FF
1F2
1EA
1E4
1EF
1F9
1FA
1FF
1FF
000
000
001
1FF
1FF
000
001
002
02A
000
00E
015
000
008
000
00F
1FF
001
000
000
1FF
000
1FD
1FC
000
000
1FF
000
000
000
015
018
1FF
001
00B
001
1FF
1FE
1FF
1FE
00E
01F
007
1FF
1FE
005
013
00F
1FF
000
1FF
1FE
1FD
1FF
1FF
000
1FF
1FF
1FF
1FE
1FF
000
003
004
012
1FE
1FB
000
000
001
1FF
1FE
1FF
1FF
00E
004
000
000
000
001
1FC
1FB
1FF
1FF
1FF
000
1FF
1F5
1FE
001
001
005
00E
01F
002
00A
1FF
001
001
016
00F
006
005
006
009
1FE
1FF
000
001
1FD
1FF
1FF
1FF
1FF
000
1FD
000
003
1FE
1F8
1FE
1FE
1FF
1FF
1FD
1FF
002
1FF
000
009
00F
003
1F9
1FB
1FF
000
002
001
004
1FF
000
000
1FF
000
011
000
001
1FD
1FB
1F1
1F7
1F1
000
001
000
003
00D
004
001
005
000
1F9
1FB
1FD
1FF
006
008
1FF
000
000
000
000
1FB
000
1FF
000
1FF
000
1FF
1EE
1FF
001
000
1FC
1F0
1F1
1FD
002
1FB
1FA
000
1FC
000
1FF
000
000
000
000
000
1FF
007
006
004
1FF
1FF
002
1FF
1FF
1FF
000
004
1FE
1FF
000
1FE
1FF
1FF
1FF
1FF
1FF
000
1FF
1FF
1FF
1FF
000
1FF
000
000
000
1FF
1FF
000
1FF
000
1FF
000
1FF
1FF
1FF
000
000
000
1FF
1FF
000
1FF
1FF
1FF
1FF
000
1FF
000
1FF
000
000
000
000
002
001
000
000
1FF
000
002
001
000
000
002
000
1FF
000
000
1FF
1FF
1FF
000
000
000
1FF
1FF
1FF
1FF
000
000
000
000
000
1FF
000
004
003
000
000
000
001
001
001
001
1FE
000
000
1FF
1FF
1FF
000
1FF
1FF
1FF
000
1FF
000
000
1FF
000
000
027
1FF
000
000
1FE
1FE
1FD
1FD
1FF
000
001
1FE
1FF
1FD
000
000
001
1FE
006
1FF
1FF
1FF
1FF
1FF
1FE
000
000
1FF
00B
000
000
002
002
1FF
1FD
1FC
1FE
1F1
000
1FF
1FE
1F9
001
1FD
1FA
1F8
1FF
004
1FF
000
1FF
1FD
1FF
1FF
1FE
1FF
1FF
000
001
000
1FE
1FD
1FE
1FF
1FE
1ED
1FD
1FF
1FF
1FD
001
001
000
000
000
1FF
1FF
1FF
1FF
1FE
000
1FF
1FE
1FE
1FE
1FF
000
1FE
1FE
1FB
1FC
1FE
1FE
1EC
1FE
001
1FF
1FC
1FE
1FD
002
001
001
001
000
1FF
000
000
000
1FF
1FE
029
1FE
1FF
008
009
1FE
1FD
1FE
1FE
1FD
003
000
016
000
1FB
000
001
001
001
001
001
000
000
000
000
001
000
1FF
012
000
000
022
01F
1FF
000
010
1FF
000
008
015
01D
1FE
1FE
000
000
000
1FE
000
000
000
1FF
000
001
006
004
001
019
004
001
1FF
003
002
1F8
1FF
000
011
000
1FF
1FE
1FE
1FF
021
001
000
1F4
1FF
005
000
1FF
000
001
002
1FF
000
000
003
000
1FB
1FB
1DA
1AC
1C7
1FE
004
1FC
001
004
1FF
1FF
001
1FF
004
002
000
000
1FF
1FF
000
000
000
1F9
1FD
1FB
1F4
1CE
18D
186
167
1B7
002
001
1FF
1FF
1FF
1FE
1FD
1FE
000
000
000
000
1F9
1FE
1FF
000
000
1FE
1F7
1CC
1AC
186
187
16B
194
1C2
003
002
027
003
001
1FF
005
1FB
1FA
1FC
1FF
1FF
000
000
1FA
1FA
000
1FF
000
1F7
1C3
1C3
1C3
1A2
1B0
1E1
1FF
002
009
01F
009
001
001
1FE
1FE
1FA
1FB
1FD
000
000
1FE
1FE
1FB
1FA
1FF
1FF
1FF
1F3
1FF
1FC
1FE
000
005
012
002
000
01C
01C
021
003
001
1FF
1FF
1FD
000
001
1FE
1FE
1FF
000
000
000
1FF
1FF
1FE
1FF
001
1FE
1FE
001
00F
01A
00F
01D
000
024
002
003
1EE
1F6
1FF
1FF
1FF
00D
1FF
000
000
000
1FE
000
000
1FF
005
00A
002
014
001
019
006
002
000
011
010
015
1FF
000
000
1FF
1FF
001
005
003
006
00C
00A
000
000
1FF
1FF
1FF
000
009
002
009
001
000
002
000
1FF
1FE
016
000
000
1FF
1FF
1FF
000
007
002
002
001
004
1FE
000
1FF
1FF
1FF
1FF
000
008
002
001
000
000
000
1FE
1FD
1FE
009
022
004
1FF
00D
025
000
000
000
003
000
1FE
1FC
009
000
000
000
1FF
002
002
001
000
005
000
1FF
1FE
1FD
1FF
1FE
018
020
039
011
015
004
000
004
014
002
1FD
1FC
000
1FF
1FF
000
1FF
000
001
012
1FF
1FF
006
1FF
1FD
1FD
1FD
1FD
003
01B
000
001
001
003
000
009
005
1FF
1FA
1FE
000
1FF
1FF
000
1FF
001
000
1FF
1FD
1FB
001
1FF
1FD
1FE
1FD
001
003
001
000
000
002
008
002
000
002
1FF
1F7
1FE
000
1FF
000
1FF
1FF
1FF
1FB
1FE
1FF
1FE
000
1FF
1FE
1F4
1F2
1EC
002
002
004
01B
008
1FF
1FF
1FF
001
000
1FF
000
000
1FF
000
000
1FF
000
1F3
1FD
00E
000
1FF
1F3
1FE
1FD
1FF
1FF
002
001
002
000
1FF
1FE
1FE
1FE
1FB
000
1FE
000
001
1FF
000
1FF
000
1FF
000
009
004
1FC
1FB
1FE
000
001
001
1FF
001
000
1F1
1FF
000
1E6
1FB
1FE
000
000
000
000
00A
006
1FF
1FF
1FF
1FF
000
000
1FC
1FE
1FF
010
001
000
000
001
001
000
1FA
1FA
1F7
1F9
1FD
1FE
001
1FF
1FF
1FF
005
006
1FF
1FF
000
000
1FF
1FE
1F2
1F8
1FD
000
1FF
000
001
000
000
1FF
1FC
1FD
1FF
1FF
000
1FF
000
1FF
1FF
1FF
000
000
1FF
000
1FF
1FF
1FF
000
1FF
000
1FF
1FF
1FF
003
000
000
000
000
000
000
000
000
1FF
1FF
1FF
1FC
1FF
1FF
000
000
000
000
000
000
000
1FF
1FF
000
1FF
1FF
1FF
000
1FF
1FF
1FF
000
1FF
000
000
1FF
000
000
1FF
000
000
1FF
1FF
1FF
000
000
000
000
000
1FF
000
000
1FF
000
1FF
1FF
1FF
000
000
1FF
1FF
000
000
1FF
000
000
1FF
1FF
000
000
000
000
000
1FF
000
000
000
1FF
1FF
000
000
000
001
001
000
000
01B
000
00C
000
000
000
000
000
000
000
1FF
1FF
000
1FF
000
1FF
1FF
000
000
1FF
000
005
002
000
001
004
003
002
00C
1FE
1F5
1FC
1FD
1EA
000
002
1FF
1F0
1FF
000
1FF
000
000
000
1FF
000
003
1FF
1FF
000
1FD
001
001
00F
007
002
000
1FE
1FB
000
1E0
1E6
1FE
1FD
1E7
1D8
1FA
1FF
1FF
1FF
000
1FF
000
1FF
001
01C
000
004
002
000
1FF
1FF
1FE
1FC
1FE
1FB
001
000
1F5
1F6
1F2
1E0
1F1
1FF
000
000
1FB
1F9
1FF
000
1FF
1FD
1FD
001
1FF
003
010
1FF
1FF
1FF
1F5
1FE
001
002
002
003
003
002
1F4
1DD
1E6
1F3
1FE
1FF
1F9
1FA
1F9
000
1FF
1F9
1FC
002
1FA
001
001
1FE
1FA
1F2
1FB
001
001
00D
014
1FF
1EE
1FA
1E5
1D1
1EB
1EF
1FF
000
000
000
1FF
000
1FF
1FF
005
008
001
1FF
000
1FF
1F9
1FF
1FA
000
001
040
00D
1FF
1FE
1DD
1EB
1D7
1F9
1F6
1FF
000
007
000
000
1FF
1FF
1FF
004
002
01B
1FF
1FE
1FF
001
000
1FF
1FF
008
045
036
005
1F7
19A
1BD
1DF
1FF
1FF
002
003
001
1FC
1F9
1FF
1FF
1FF
009
001
015
1FE
1FE
1FE
1FF
000
001
002
03C
022
1FD
1FF
1E7
1BD
1F3
1F1
1FF
000
000
007
1FD
1FF
001
000
1FF
1FF
008
002
001
1FF
1FF
1FD
000
002
002
001
00B
1FF
1FE
1D8
1E0
1F3
000
000
000
1FF
1FD
1FF
1F9
1FF
001
000
000
000
000
1FE
000
000
1FF
1FE
000
000
000
1FE
1FC
1FF
001
001
000
1FE
1FF
1FF
1FF
1F7
1FE
006
1FF
1FD
1FE
000
1FF
000
000
1FD
1FE
000
1FF
1E9
1FF
1FD
1FE
1EF
1FE
000
000
004
014
00D
017
1FF
000
001
000
1FF
1FF
003
1FF
1FF
1FF
000
00E
1FF
1FE
1FE
1E7
1E6
1F8
1F6
1FD
1EE
1FF
1FF
1FF
1FF
000
001
009
1FE
1FF
1FF
000
1FF
009
1FF
000
000
000
1FE
000
1F2
1FF
1FE
1FE
1FE
1FA
1EE
1FF
001
006
004
1FF
1FF
1FF
1FE
006
1FF
1F2
001
1FF
000
001
000
1FF
001
1FF
000
000
002
002
1FF
1FF
1EB
1FE
1FF
1FF
1FF
005
026
001
002
000
1FD
000
1FE
1FF
000
000
016
002
1FF
001
000
000
1FF
1FF
000
001
1FF
1FD
1CB
1FE
00B
1FF
003
01C
006
000
000
000
1FE
004
1FE
000
002
000
1FE
001
000
002
004
000
1FF
1FE
000
1FF
1FE
1DD
1C8
1F9
000
000
009
019
1FF
1FE
000
001
002
005
001
000
1FF
1F7
1FE
001
000
000
1FF
1FF
1F8
1FD
000
1FF
1F9
001
1EF
1FA
000
00E
00F
002
1FF
1FF
000
000
002
000
000
001
1FE
1F3
1FE
1FE
1FF
000
1FF
1FF
1FE
000
001
000
1FF
001
1F8
1FE
001
01C
00A
002
003
000
001
001
000
1FE
1FF
000
1FD
1FE
000
1FD
1FF
000
1FF
1FF
1FF
000
002
000
1E0
1F2
1F2
1ED
1FF
001
002
002
001
000
000
000
000
1FD
1F7
1FB
1FC
1FE
1FD
1FB
1FF
1FF
1FF
000
1FF
1FF
001
001
002
001
000
000
1FB
1FD
1EF
000
1F4
001
1FF
1FF
000
1FE
1FF
1FF
1FE
1FD
1FD
1FE
1FF
000
1FF
000
1FF
000
000
1FF
1FF
000
001
002
001
000
1FE
1FE
1FF
000
1FE
1FF
000
1FF
004
000
1FF
1F8
1FA
002
1FF
1FF
000
000
1FF
1FF
1FF
1FE
001
1FF
1FF
1FE
1F8
1E6
1FE
1FE
1FE
1FC
000
1FF
1FD
000
003
000
1FF
1F9
1F7
004
000
1FF
000
000
1FF
000
1FF
1FE
012
00A
004
1FF
000
000
000
1FC
1FF
000
000
001
000
002
001
1FF
1FB
1F9
1F6
1FF
1FF
000
1FF
000
1FF
000
1FD
1FD
1FD
1FF
1FF
1FF
001
002
001
1FE
1FC
1FC
001
001
002
1FF
1FA
1FC
1FD
005
000
1FF
000
000
1FF
000
000
000
1FF
1FF
1FF
000
000
000
000
000
000
000
000
000
000
1FF
1FF
1FF
1FF
1FF
000
000
1FF
1FF
1FF
1FF
1FF
000
1FF
000
1FF
1FF
1FF
1FF
000
1FF
000
000
1FF
1FF
1FF
000
1FF
1FF
000
000
1FF
000
000
1FF
000
1FF
000
000
000
000
1FF
1FF
1FF
1FE
1FE
1FF
1FE
1FF
1FF
1FF
000
1FF
1FF
1FF
000
000
000
1FF
1FF
000
1FF
1FF
1FF
1FF
000
000
000
000
1FF
000
1FF
1FF
1FF
1FF
1FF
1FF
1FB
1FA
000
1FF
1FC
1E9
1E3
1FD
000
01F
000
1FF
1FF
1FF
1FF
1FF
000
1FF
000
000
000
1FF
002
1FF
1FF
1FF
1FF
1FB
004
002
002
000
1E5
1FF
1FF
001
00F
00D
010
001
000
1FD
1FF
000
1FF
000
1FF
1FF
1FF
1FF
1FF
001
000
000
1FE
1F3
1FE
1FF
1FF
1E4
1FC
000
1FF
1FF
000
000
1FE
1FF
1FE
000
000
001
001
000
000
1FF
1FF
1FF
001
009
002
003
1FD
1FD
1FB
1EA
1FD
1E7
1FF
001
1F2
002
002
001
000
1FF
1FE
1FE
000
1FF
001
1FF
1FF
1FF
1FF
1FF
000
000
005
1FF
1FE
1FA
1FC
1F8
1FE
001
001
002
001
002
000
005
004
000
000
1FF
1FD
1FF
000
1FE
000
1FF
1FC
1FF
000
000
1FF
1FF
1FD
1FF
1F6
1DC
000
001
001
00C
011
00C
014
00A
009
000
000
005
1FC
1FF
1FF
1FE
000
000
1FF
000
000
000
001
000
1F7
1F9
1D7
1DA
000
000
000
01B
02B
03A
02F
1FF
1FF
017
1FE
1FE
1FF
1FF
000
1FF
1FF
000
1FF
000
001
1FF
000
1FE
1F0
1FF
1FF
1FE
1FF
002
002
01A
011
013
01C
003
000
1FF
1FE
000
000
000
1FF
1FE
1FF
1FF
002
1FF
000
1FF
1FF
1FE
1E5
1FB
1FF
1FF
000
000
00C
00E
021
001
002
000
017
000
018
001
001
001
001
000
1FF
1FF
001
1FE
1FF
1FE
1FF
1FF
1FE
1D3
1FF
000
1DE
001
006
01B
007
016
01A
003
003
005
001
00F
004
002
005
1FF
1FF
000
1FF
000
1FE
000
000
000
1EE
000
000
000
1E3
000
000
026
000
001
000
000
000
000
002
003
000
1F5
1FF
004
000
1FF
1FF
1EA
000
001
000
1E5
1FE
1F8
1FF
000
001
1F1
000
001
1FF
1FE
1EF
1F6
000
001
001
000
1C9
000
000
1FE
1FF
1FF
1FF
1FF
000
004
000
1FC
1FF
1FF
1FE
000
000
1F7
1FC
000
1FD
1EE
1ED
1FF
001
001
000
1FF
1EE
000
001
1FF
1FF
1FF
000
1FD
004
013
001
1FF
1FF
1FC
1FB
1FF
000
1FD
1F7
1FD
1FE
1FE
1FB
1FC
000
1F9
1FE
1FD
1FC
1FE
000
1FF
000
1FF
1FD
1FF
003
007
001
000
000
1FD
1FD
1EE
1F3
1FA
1E8
1FF
001
000
000
1FD
1FC
1C0
1F3
1DE
1FE
1FC
1FF
001
1FF
1FF
1FA
1FF
002
001
001
001
000
000
1FF
1FE
1F4
1EC
1F6
000
005
00A
004
1FF
1FE
1D1
1FB
1FE
000
00C
004
002
1FF
1FF
1FF
1FA
000
001
002
002
000
000
002
003
000
1FF
000
1FF
001
001
1FF
1D1
1DC
1CA
1FF
000
1FF
1FF
1FC
1FF
1FF
000
1FE
1E8
001
002
001
1FF
1FD
000
000
000
005
003
000
1FF
002
000
1FE
1DF
1CF
1F8
001
001
001
000
1FF
1FF
000
000
1FE
000
000
1FF
000
1FF
1FE
1FB
001
000
012
00B
000
000
001
000
1E7
1BD
1DC
1FF
002
002
002
001
1FF
000
1FF
1FF
1F0
001
1FA
000
000
000
1FF
000
000
008
001
002
000
001
001
1FF
1C8
1CE
000
000
1FF
1FF
001
1FF
1FF
1FF
1FF
000
000
000
1FF
000
017
00E
000
001
010
001
002
003
000
000
1DC
1CC
1B3
1FF
1FF
000
1FF
1FE
1FB
1FB
1FF
1FF
1FF
1FF
1FE
1FA
1FC
000
001
002
001
000
1FF
1FF
000
000
1E7
1F3
1DA
1E7
1FF
1FF
1FE
1FD
002
002
1FD
1F9
000
1FF
1FF
000
000
1FF
1FF
015
1FF
1FF
001
003
000
1FF
003
001
1F7
1FC
1DB
1E8
1EB
1FB
001
1FF
1FB
002
005
1FF
1FF
000
1FF
000
1FF
1FF
1FA
1FE
1FA
1FE
1FD
001
1EC
1FC
018
006
1FD
1F7
1F9
1FD
1F0
1FA
1FE
1F9
1FE
000
004
000
000
1FF
000
000
000
1FF
1E5
1F6
1FC
1FF
002
000
000
007
00A
00B
000
1FE
1FF
000
1FF
1FF
1FF
1FF
1FF
000
000
1FF
000
000
1FF
000
000
1FF
000
1FF
1FF
1FF
1FF
1FF
1FF
000
1FF
000
000
1FF
1FF
000
1FF
1FF
1FF
000
1FF
1FF
1FF
1FF
1FF
000
000
1FF
1FF
1FF
1FF
000
000
1FF
000
000
1FF
1FF
000
1FF
1FF
1FF
1FF
1FF
000
000
1FF
000
000
1FF
000
1FF
000
000
000
1FF
000
000
000
1FF
1FF
000
1FF
1FF
000
1FF
1FF
000
1FF
1FF
1FF
1FF
1FF
000
000
000
1FF
1FF
000
000
000
000
1FF
000
000
000
000
000
1FF
1FF
1FF
1FF
1FF
1FF
000
000
1FF
1FF
1FF
1FF
1FF
1FE
1FE
1FF
1FF
1FF
1FF
1FF
1FF
1FF
1FF
000
000
1FF
1FF
001
000
000
000
1FF
1FF
1FD
1F1
1E2
1FE
001
001
000
1FF
1F4
1FB
1FE
1FF
1FD
1FE
1FD
1FF
1FF
000
000
000
001
1FF
001
000
1FF
1FE
1FE
1FF
1FF
1FF
1FF
022
004
003
003
002
1FF
1FA
1FE
1FE
1FF
1FE
1FC
000
000
000
1FF
1FF
000
1FE
000
000
1FF
000
001
000
000
000
004
000
1FF
039
00C
1FE
1FF
1FF
1FE
1FF
000
1FF
1FC
1FF
1FF
1FF
1FF
000
1FC
000
00E
001
1FF
000
002
000
1FF
01F
000
01C
000
00E
1FF
1FF
000
000
000
000
00B
1FF
1FE
1FF
000
000
1FF
1FD
1FE
001
008
000
000
008
00E
000
1FF
000
000
001
1FF
000
1FF
1FF
000
000
000
000
000
1FE
1FD
1FF
1FF
000
000
1FF
001
006
009
006
00C
002
004
1FE
1FA
001
001
1F9
000
1FE
1FD
1FE
1FF
1F9
1FC
000
001
1FF
1FF
1FF
1FF
000
1FF
1FD
002
006
002
000
003
00D
000
1ED
000
007
002
001
000
1F7
1FC
1FE
1FF
1FA
1FE
001
003
000
001
1FF
000
1FF
1FF
1FF
003
001
000
018
000
1FF
1FF
1FF
000
001
000
1FF
000
1FE
1FE
001
1FF
1FE
1FD
1FF
002
1FE
1FF
1FF
1FF
000
1FF
1FF
001
01C
1FF
1FF
000
002
1FF
000
1FF
013
008
1FF
000
1FF
1FF
1FF
000
1FC
1D3
1D5
1E3
1FD
1FC
1FF
1FF
1FF
1FF
1FF
000
1FF
1FF
000
1FF
001
001
000
1FE
00F
02C
006
000
1FF
1F2
1FE
1FE
1FC
1FD
1FE
1FA
1F3
1FC
1FF
1FF
000
000
000
001
1FE
008
000
000
000
001
1FE
000
015
04C
02A
028
000
1FF
002
1FF
1FE
1F9
1F1
1FE
1FC
1FF
1FF
1FF
1FF
1FF
1FF
000
1FB
1FF
002
001
000
000
001
000
000
000
03B
022
01A
00F
01E
002
1FA
1FB
1EC
1FF
1FF
1FF
1FF
1FF
1FF
1FF
1FF
1FF
1F0
1E0
000
001
002
001
1FF
000
1FF
001
029
038
02A
00A
012
006
1FF
1FF
007
1FF
1FF
1FF
1FF
000
000
000
1FF
1FF
1F5
1F9
1FF
000
001
001
1FE
1EE
1FC
1FF
000
007
001
024
004
013
001
008
018
01B
000
1FF
1FF
1FF
000
1FF
1FF
1FF
000
1FF
1FE
1FE
1FF
1FE
1DB
1E3
1E0
1E1
1EA
001
002
011
001
013
004
008
016
004
008
1FE
1FF
1FF
1FF
000
1FF
1FF
001
000
1FF
1FD
1FC
1E4
1EA
1DB
1D5
1CD
1BE
1DF
000
001
001
01B
030
1FF
005
001
000
000
1FF
1FE
000
1FF
1FF
1FF
1FF
000
1FF
1FE
1FC
1FD
1F0
1E9
1FB
1DE
1D0
1C4
1FE
000
001
018
011
000
000
01A
001
000
1FF
000
1FF
1FF
1FF
000
1FF
1FF
008
1FE
1FE
1F9
1FE
001
1FF
1F8
1FE
1FF
1FD
1FF
000
000
016
000
000
029
002
000
1FF
000
1FF
1FF
006
1FF
1FE
1FF
1FF
000
1FE
1FD
1FF
002
001
001
001
001
000
000
000
000
004
004
1FF
001
000
000
000
000
000
1FF
003
000
1FD
1FC
1FF
000
1FE
1FC
1FE
001
1FF
1FF
001
002
001
000
1FF
000
004
000
1FF
001
000
1FF
1FF
1FF
000
1FF
000
1FF
003
1FD
1FF
000
1FF
1FE
1FE
000
1FF
003
001
001
000
1FF
1FF
000
000
1FF
001
00C
00B
1FF
000
000
1FF
1FF
000
003
003
001
003
001
000
001
000
000
000
001
002
1FF
1F2
1F6
1FF
1FE
1FB
1FD
1FD
003
