001
01C
07E
3BC
082
045
019
354
39C
3DF
387
366
3FF
3E3
038
08B
3E3
3EE
33D
3B7
062
0AA
3F8
001
34B
392
3FE
338
3AD
001
039
347
3D4
37B
000
000
3D9
001
000
3E2
071
01D
3F6
3B3
05C
009
384
037
3B5
3E3
3CC
000
056
038
06F
3A1
3FF
3BF
366
3A9
3E7
3AC
36E
0C6
37D
352
025
3DB
376
3FD
000
37B
0F5
31E
3D4
06E
083
3EC
017
067
038
3C2
3D8
000
066
384
3BA
3FE
003
30E
3FA
321
001
3FE
36F
3D5
04B
384
002
009
07C
3B6
35A
388
05D
064
032
01B
3CC
364
005
033
3D8
000
3BC
058
370
3FF
3F4
3C1
0A3
001
3A6
3D3
064
016
072
09E
071
03F
31A
3CD
086
3DB
3CE
02A
3B8
3F9
3C2
04C
360
3E7
044
3AD
00E
3E2
069
07A
336
317
048
026
3B9
002
3FF
009
362
362
37C
0C7
08D
3FF
3B5
005
041
3D8
005
076
3EF
048
3D4
026
3FB
07F
07D
00C
3FF
003
08C
01E
3FC
064
07D
3EE
361
3AA
3CB
3FF
377
3D8
321
00F
336
00B
08F
019
365
381
3A5
06F
000
31D
090
06E
3FF
021
05F
338
021
3B5
001
3F3
002
0A8
015
31C
3FF
3A8
060
023
37C
32E
37E
382
3DE
0A2
382
3A8
354
3E3
356
001
313
02C
053
34E
321
07C
06A
075
03D
3FE
06D
04A
399
3CC
38E
01A
013
03D
3BE
063
036
069
3FB
2EF
3A1
091
357
09B
076
004
062
3C9
3E8
3AA
3EA
073
3FE
2D8
34E
3D8
064
007
3ED
34F
00E
3C6
3B4
2F9
040
03F
3E6
012
00E
06E
0BD
3BB
363
3FF
3FF
00B
3E8
01F
05B
36C
3F7
03C
064
004
337
3CF
064
3EB
028
000
3F8
042
008
3C1
2D4
053
3FF
3F7
09B
032
04C
3F4
3CB
32F
3E8
37A
3BF
335
3FD
37A
3BA
3A8
024
033
3FB
3D7
319
02C
3FE
087
096
3BB
037
07C
3D4
000
3CB
37A
052
3AB
08A
388
374
35E
071
091
3E6
336
027
3E8
053
04A
02C
3CB
3D2
328
3EE
3B7
3F6
38E
3AE
317
06F
034
3A6
027
3BF
026
3AE
3F0
013
029
078
3EF
01B
3D5
07A
053
079
3A0
000
38E
045
3CE
01D
33B
06C
061
3CA
02C
3D0
3A8
3B5
393
39B
386
3F7
023
2B8
3FC
067
03F
05D
3B4
001
3E9
095
39B
005
081
078
395
331
051
057
3F3
3BA
3DD
08A
00D
3A1
01D
383
3F0
02E
09C
3EC
33F
36D
000
004
3E0
007
3D0
00B
07A
3C4
31A
3C5
07B
03D
3B3
055
3C8
3FE
3CC
362
3A8
38C
051
349
3B7
029
3F4
057
07C
39E
31F
2F4
00F
001
05E
054
061
056
040
3F1
044
006
3FE
32F
2FE
2AD
3FA
034
3B5
3EF
029
3EE
088
3EE
03E
026
36B
05A
3F6
009
060
349
04E
33F
039
01E
095

